{
  "version": "1.0",
  "truncation": null,
  "padding": null,
  "added_tokens": [
    {
      "id": 0,
      "content": "[PAD]",
      "single_word": false,
      "lstrip": false,
      "rstrip": false,
      "normalized": false,
      "special": true
    },
    {
      "id": 1,
      "content": "[BOS]",
      "single_word": false,
      "lstrip": false,
      "rstrip": false,
      "normalized": false,
      "special": true
    },
    {
      "id": 2,
      "content": "[EOS]",
      "single_word": false,
      "lstrip": false,
      "rstrip": false,
      "normalized": false,
      "special": true
    },
    {
      "id": 3,
      "content": "[UNK]",
      "single_word": false,
      "lstrip": false,
      "rstrip": false,
      "normalized": false,
      "special": true
    }
  ],
  "normalizer": {
    "type": "Sequence",
    "normalizers": [
      {
        "type": "Prepend",
        "prepend": "▁"
      },
      {
        "type": "Replace",
        "pattern": {
          "String": " "
        },
        "content": "▁"
      }
    ]
  },
  "pre_tokenizer": null,
  "post_processor": null,
  "decoder": {
    "type": "Sequence",
    "decoders": [
      {
        "type": "Replace",
        "pattern": {
          "String": "▁"
        },
        "content": " "
      },
      {
        "type": "ByteFallback"
      },
      {
        "type": "Fuse"
      },
      {
        "type": "Strip",
        "content": " ",
        "start": 1,
        "stop": 0
      }
    ]
  },
  "model": {
    "type": "BPE",
    "dropout": null,
    "unk_token": "[UNK]",
    "continuing_subword_prefix": null,
    "end_of_word_suffix": null,
    "fuse_unk": true,
    "byte_fallback": true,
    "vocab": {
      "[PAD]": 0,
      "[BOS]": 1,
      "[EOS]": 2,
      "[UNK]": 3,
      "\n": 4,
      "\n\n": 5,
      "\n\n\n": 6,
      "\n\n\n\n": 7,
      "\n\n\n\n\n": 8,
      "\n\n\n\n\n\n": 9,
      "\n\n\n\n\n\n\n": 10,
      "\n\n\n\n\n\n\n\n": 11,
      "\n\n\n\n\n\n\n\n\n": 12,
      "\n\n\n\n\n\n\n\n\n\n": 13,
      "0": 14,
      "1": 15,
      "2": 16,
      "3": 17,
      "4": 18,
      "5": 19,
      "6": 20,
      "7": 21,
      "8": 22,
      "9": 23,
      "\t": 24,
      "\t\t": 25,
      "\t\t\t": 26,
      "\t\t\t\t": 27,
      "\t\t\t\t\t": 28,
      "\t\t\t\t\t\t": 29,
      "\t\t\t\t\t\t\t": 30,
      "\t\t\t\t\t\t\t\t": 31,
      "  ": 32,
      "   ": 33,
      "    ": 34,
      "     ": 35,
      "      ": 36,
      "       ": 37,
      "        ": 38,
      "         ": 39,
      "          ": 40,
      "           ": 41,
      "            ": 42,
      "             ": 43,
      "              ": 44,
      "               ": 45,
      "                ": 46,
      "<|separator|>": 47,
      "<|mask|>": 48,
      "<|control1|>": 49,
      "<|control2|>": 50,
      "<|control3|>": 51,
      "<|control4|>": 52,
      "<|control5|>": 53,
      "<|control6|>": 54,
      "<|control7|>": 55,
      "<|control8|>": 56,
      "<|control9|>": 57,
      "<|control10|>": 58,
      "<|control11|>": 59,
      "<|control12|>": 60,
      "<|control13|>": 61,
      "<|control14|>": 62,
      "<|control15|>": 63,
      "<|control16|>": 64,
      "<|control17|>": 65,
      "<|control18|>": 66,
      "<|control19|>": 67,
      "<|control20|>": 68,
      "<0x00>": 69,
      "<0x01>": 70,
      "<0x02>": 71,
      "<0x03>": 72,
      "<0x04>": 73,
      "<0x05>": 74,
      "<0x06>": 75,
      "<0x07>": 76,
      "<0x08>": 77,
      "<0x09>": 78,
      "<0x0A>": 79,
      "<0x0B>": 80,
      "<0x0C>": 81,
      "<0x0D>": 82,
      "<0x0E>": 83,
      "<0x0F>": 84,
      "<0x10>": 85,
      "<0x11>": 86,
      "<0x12>": 87,
      "<0x13>": 88,
      "<0x14>": 89,
      "<0x15>": 90,
      "<0x16>": 91,
      "<0x17>": 92,
      "<0x18>": 93,
      "<0x19>": 94,
      "<0x1A>": 95,
      "<0x1B>": 96,
      "<0x1C>": 97,
      "<0x1D>": 98,
      "<0x1E>": 99,
      "<0x1F>": 100,
      "<0x20>": 101,
      "<0x21>": 102,
      "<0x22>": 103,
      "<0x23>": 104,
      "<0x24>": 105,
      "<0x25>": 106,
      "<0x26>": 107,
      "<0x27>": 108,
      "<0x28>": 109,
      "<0x29>": 110,
      "<0x2A>": 111,
      "<0x2B>": 112,
      "<0x2C>": 113,
      "<0x2D>": 114,
      "<0x2E>": 115,
      "<0x2F>": 116,
      "<0x30>": 117,
      "<0x31>": 118,
      "<0x32>": 119,
      "<0x33>": 120,
      "<0x34>": 121,
      "<0x35>": 122,
      "<0x36>": 123,
      "<0x37>": 124,
      "<0x38>": 125,
      "<0x39>": 126,
      "<0x3A>": 127,
      "<0x3B>": 128,
      "<0x3C>": 129,
      "<0x3D>": 130,
      "<0x3E>": 131,
      "<0x3F>": 132,
      "<0x40>": 133,
      "<0x41>": 134,
      "<0x42>": 135,
      "<0x43>": 136,
      "<0x44>": 137,
      "<0x45>": 138,
      "<0x46>": 139,
      "<0x47>": 140,
      "<0x48>": 141,
      "<0x49>": 142,
      "<0x4A>": 143,
      "<0x4B>": 144,
      "<0x4C>": 145,
      "<0x4D>": 146,
      "<0x4E>": 147,
      "<0x4F>": 148,
      "<0x50>": 149,
      "<0x51>": 150,
      "<0x52>": 151,
      "<0x53>": 152,
      "<0x54>": 153,
      "<0x55>": 154,
      "<0x56>": 155,
      "<0x57>": 156,
      "<0x58>": 157,
      "<0x59>": 158,
      "<0x5A>": 159,
      "<0x5B>": 160,
      "<0x5C>": 161,
      "<0x5D>": 162,
      "<0x5E>": 163,
      "<0x5F>": 164,
      "<0x60>": 165,
      "<0x61>": 166,
      "<0x62>": 167,
      "<0x63>": 168,
      "<0x64>": 169,
      "<0x65>": 170,
      "<0x66>": 171,
      "<0x67>": 172,
      "<0x68>": 173,
      "<0x69>": 174,
      "<0x6A>": 175,
      "<0x6B>": 176,
      "<0x6C>": 177,
      "<0x6D>": 178,
      "<0x6E>": 179,
      "<0x6F>": 180,
      "<0x70>": 181,
      "<0x71>": 182,
      "<0x72>": 183,
      "<0x73>": 184,
      "<0x74>": 185,
      "<0x75>": 186,
      "<0x76>": 187,
      "<0x77>": 188,
      "<0x78>": 189,
      "<0x79>": 190,
      "<0x7A>": 191,
      "<0x7B>": 192,
      "<0x7C>": 193,
      "<0x7D>": 194,
      "<0x7E>": 195,
      "<0x7F>": 196,
      "<0x80>": 197,
      "<0x81>": 198,
      "<0x82>": 199,
      "<0x83>": 200,
      "<0x84>": 201,
      "<0x85>": 202,
      "<0x86>": 203,
      "<0x87>": 204,
      "<0x88>": 205,
      "<0x89>": 206,
      "<0x8A>": 207,
      "<0x8B>": 208,
      "<0x8C>": 209,
      "<0x8D>": 210,
      "<0x8E>": 211,
      "<0x8F>": 212,
      "<0x90>": 213,
      "<0x91>": 214,
      "<0x92>": 215,
      "<0x93>": 216,
      "<0x94>": 217,
      "<0x95>": 218,
      "<0x96>": 219,
      "<0x97>": 220,
      "<0x98>": 221,
      "<0x99>": 222,
      "<0x9A>": 223,
      "<0x9B>": 224,
      "<0x9C>": 225,
      "<0x9D>": 226,
      "<0x9E>": 227,
      "<0x9F>": 228,
      "<0xA0>": 229,
      "<0xA1>": 230,
      "<0xA2>": 231,
      "<0xA3>": 232,
      "<0xA4>": 233,
      "<0xA5>": 234,
      "<0xA6>": 235,
      "<0xA7>": 236,
      "<0xA8>": 237,
      "<0xA9>": 238,
      "<0xAA>": 239,
      "<0xAB>": 240,
      "<0xAC>": 241,
      "<0xAD>": 242,
      "<0xAE>": 243,
      "<0xAF>": 244,
      "<0xB0>": 245,
      "<0xB1>": 246,
      "<0xB2>": 247,
      "<0xB3>": 248,
      "<0xB4>": 249,
      "<0xB5>": 250,
      "<0xB6>": 251,
      "<0xB7>": 252,
      "<0xB8>": 253,
      "<0xB9>": 254,
      "<0xBA>": 255,
      "<0xBB>": 256,
      "<0xBC>": 257,
      "<0xBD>": 258,
      "<0xBE>": 259,
      "<0xBF>": 260,
      "<0xC0>": 261,
      "<0xC1>": 262,
      "<0xC2>": 263,
      "<0xC3>": 264,
      "<0xC4>": 265,
      "<0xC5>": 266,
      "<0xC6>": 267,
      "<0xC7>": 268,
      "<0xC8>": 269,
      "<0xC9>": 270,
      "<0xCA>": 271,
      "<0xCB>": 272,
      "<0xCC>": 273,
      "<0xCD>": 274,
      "<0xCE>": 275,
      "<0xCF>": 276,
      "<0xD0>": 277,
      "<0xD1>": 278,
      "<0xD2>": 279,
      "<0xD3>": 280,
      "<0xD4>": 281,
      "<0xD5>": 282,
      "<0xD6>": 283,
      "<0xD7>": 284,
      "<0xD8>": 285,
      "<0xD9>": 286,
      "<0xDA>": 287,
      "<0xDB>": 288,
      "<0xDC>": 289,
      "<0xDD>": 290,
      "<0xDE>": 291,
      "<0xDF>": 292,
      "<0xE0>": 293,
      "<0xE1>": 294,
      "<0xE2>": 295,
      "<0xE3>": 296,
      "<0xE4>": 297,
      "<0xE5>": 298,
      "<0xE6>": 299,
      "<0xE7>": 300,
      "<0xE8>": 301,
      "<0xE9>": 302,
      "<0xEA>": 303,
      "<0xEB>": 304,
      "<0xEC>": 305,
      "<0xED>": 306,
      "<0xEE>": 307,
      "<0xEF>": 308,
      "<0xF0>": 309,
      "<0xF1>": 310,
      "<0xF2>": 311,
      "<0xF3>": 312,
      "<0xF4>": 313,
      "<0xF5>": 314,
      "<0xF6>": 315,
      "<0xF7>": 316,
      "<0xF8>": 317,
      "<0xF9>": 318,
      "<0xFA>": 319,
      "<0xFB>": 320,
      "<0xFC>": 321,
      "<0xFD>": 322,
      "<0xFE>": 323,
      "<0xFF>": 324,
      "▁▁": 325,
      "▁t": 326,
      "▁a": 327,
      "in": 328,
      "he": 329,
      "re": 330,
      "on": 331,
      "er": 332,
      "▁the": 333,
      "▁s": 334,
      "at": 335,
      "▁▁▁▁": 336,
      "▁w": 337,
      "or": 338,
      "en": 339,
      "▁c": 340,
      "ou": 341,
      "it": 342,
      "is": 343,
      "es": 344,
      "an": 345,
      "▁f": 346,
      "ing": 347,
      "▁b": 348,
      "▁o": 349,
      "▁p": 350,
      "ed": 351,
      "al": 352,
      "▁an": 353,
      "ar": 354,
      "▁m": 355,
      "▁to": 356,
      "▁d": 357,
      "▁in": 358,
      "▁of": 359,
      "▁and": 360,
      "le": 361,
      "ic": 362,
      "as": 363,
      "▁h": 364,
      "ion": 365,
      "om": 366,
      "▁th": 367,
      "ll": 368,
      "st": 369,
      "ent": 370,
      "▁l": 371,
      "▁I": 372,
      "▁n": 373,
      "et": 374,
      "▁▁▁▁▁▁▁▁": 375,
      "ro": 376,
      "▁re": 377,
      "▁T": 378,
      "ve": 379,
      "ct": 380,
      "▁e": 381,
      "▁g": 382,
      "ly": 383,
      "id": 384,
      "▁y": 385,
      "▁S": 386,
      "ot": 387,
      "▁A": 388,
      "▁be": 389,
      "am": 390,
      "▁is": 391,
      "im": 392,
      "se": 393,
      "ow": 394,
      "ay": 395,
      "▁on": 396,
      "ad": 397,
      "ac": 398,
      "ig": 399,
      "ut": 400,
      "▁for": 401,
      "▁you": 402,
      "▁C": 403,
      "▁u": 404,
      "ver": 405,
      "▁that": 406,
      "il": 407,
      "▁st": 408,
      "ol": 409,
      "ur": 410,
      "ation": 411,
      "ith": 412,
      "▁M": 413,
      "ce": 414,
      "▁it": 415,
      "▁he": 416,
      "ir": 417,
      "ch": 418,
      "▁with": 419,
      "if": 420,
      "▁B": 421,
      "▁The": 422,
      "▁P": 423,
      "▁as": 424,
      "ter": 425,
      "▁we": 426,
      "▁(": 427,
      "od": 428,
      "▁wh": 429,
      "el": 430,
      "ag": 431,
      "nd": 432,
      "▁W": 433,
      "ke": 434,
      "out": 435,
      "ill": 436,
      "ate": 437,
      "▁H": 438,
      "▁con": 439,
      "ul": 440,
      "em": 441,
      "ers": 442,
      "▁D": 443,
      "ri": 444,
      "ra": 445,
      "est": 446,
      "pp": 447,
      "ore": 448,
      "▁pro": 449,
      "ld": 450,
      "ab": 451,
      "▁F": 452,
      "▁are": 453,
      "us": 454,
      "her": 455,
      "ht": 456,
      "un": 457,
      "ess": 458,
      "▁R": 459,
      "um": 460,
      "▁ha": 461,
      "▁v": 462,
      "and": 463,
      "qu": 464,
      "▁com": 465,
      "op": 466,
      "▁de": 467,
      "ist": 468,
      "▁was": 469,
      "th": 470,
      "▁at": 471,
      "ew": 472,
      "our": 473,
      "▁or": 474,
      "rom": 475,
      "▁se": 476,
      "▁ex": 477,
      "▁L": 478,
      "▁r": 479,
      "▁N": 480,
      "ort": 481,
      "oc": 482,
      "res": 483,
      "pe": 484,
      "os": 485,
      "▁E": 486,
      "nt": 487,
      "##": 488,
      "▁G": 489,
      "ant": 490,
      "ain": 491,
      "▁this": 492,
      "end": 493,
      "ment": 494,
      "ity": 495,
      "art": 496,
      "▁have": 497,
      "▁not": 498,
      "ive": 499,
      "▁su": 500,
      "ight": 501,
      "▁from": 502,
      "▁\"": 503,
      "▁al": 504,
      "ust": 505,
      "▁sh": 506,
      "▁O": 507,
      "▁=": 508,
      "ould": 509,
      "▁ch": 510,
      "--": 511,
      "▁can": 512,
      "pt": 513,
      "▁by": 514,
      "ies": 515,
      "all": 516,
      "iv": 517,
      "▁le": 518,
      "ack": 519,
      "red": 520,
      "ard": 521,
      "ame": 522,
      "ction": 523,
      "ome": 524,
      "te": 525,
      "ost": 526,
      "ally": 527,
      "▁do": 528,
      "▁your": 529,
      "▁“": 530,
      "▁J": 531,
      "ud": 532,
      "▁j": 533,
      "▁ab": 534,
      "rou": 535,
      "▁ne": 536,
      "ok": 537,
      "▁wor": 538,
      "ine": 539,
      "pl": 540,
      "▁▁▁▁▁▁▁▁▁▁▁▁▁▁▁▁": 541,
      "▁k": 542,
      "▁will": 543,
      "▁pl": 544,
      "ge": 545,
      "ak": 546,
      "▁all": 547,
      "ue": 548,
      "ast": 549,
      "▁$": 550,
      "▁U": 551,
      "ide": 552,
      "ure": 553,
      "▁me": 554,
      "per": 555,
      "▁go": 556,
      "▁but": 557,
      "age": 558,
      "og": 559,
      "ff": 560,
      "▁whe": 561,
      "ind": 562,
      "▁Th": 563,
      "▁us": 564,
      "▁▁▁▁▁": 565,
      "▁cl": 566,
      "▁tr": 567,
      "ass": 568,
      "ial": 569,
      "ect": 570,
      "ear": 571,
      "iz": 572,
      "one": 573,
      "▁has": 574,
      "▁im": 575,
      "ice": 576,
      "▁out": 577,
      ");": 578,
      "▁In": 579,
      "ub": 580,
      "ich": 581,
      "ime": 582,
      "▁my": 583,
      "▁they": 584,
      "gh": 585,
      "▁up": 586,
      "▁##": 587,
      "ther": 588,
      "ap": 589,
      "able": 590,
      "ong": 591,
      "ake": 592,
      "are": 593,
      "▁his": 594,
      "▁{": 595,
      "▁so": 596,
      "▁ad": 597,
      "ip": 598,
      "▁-": 599,
      "▁en": 600,
      "ook": 601,
      "▁\\": 602,
      "ans": 603,
      "cl": 604,
      "▁comp": 605,
      "▁li": 606,
      "ated": 607,
      "orm": 608,
      "▁their": 609,
      "ult": 610,
      "very": 611,
      "to": 612,
      "..": 613,
      "▁one": 614,
      "ie": 615,
      "▁more": 616,
      "ber": 617,
      "ile": 618,
      "ous": 619,
      "ite": 620,
      "ace": 621,
      "port": 622,
      "cc": 623,
      "▁sa": 624,
      "▁K": 625,
      "act": 626,
      "so": 627,
      "ions": 628,
      "▁if": 629,
      "//": 630,
      "ep": 631,
      "▁Y": 632,
      "ase": 633,
      "▁te": 634,
      "int": 635,
      "ry": 636,
      "ance": 637,
      "ia": 638,
      "▁res": 639,
      "▁cont": 640,
      "ire": 641,
      "▁about": 642,
      "av": 643,
      "▁who": 644,
      "▁It": 645,
      "ib": 646,
      "▁▁▁▁▁▁": 647,
      "▁which": 648,
      "▁man": 649,
      "▁St": 650,
      "ary": 651,
      "▁get": 652,
      "ign": 653,
      "ks": 654,
      "con": 655,
      "▁her": 656,
      "au": 657,
      "urn": 658,
      "▁un": 659,
      "▁had": 660,
      "▁V": 661,
      "▁qu": 662,
      "ach": 663,
      "▁#": 664,
      "▁like": 665,
      "ord": 666,
      "ose": 667,
      "du": 668,
      "▁app": 669,
      "▁new": 670,
      "xt": 671,
      "ays": 672,
      "ru": 673,
      "ations": 674,
      "▁ev": 675,
      "com": 676,
      "▁time": 677,
      "**": 678,
      "ount": 679,
      "▁other": 680,
      "own": 681,
      "fe": 682,
      "▁'": 683,
      "▁some": 684,
      "▁kn": 685,
      "ail": 686,
      "▁<": 687,
      "▁them": 688,
      "▁would": 689,
      "ical": 690,
      "▁per": 691,
      "▁there": 692,
      "reat": 693,
      "▁ar": 694,
      "▁•": 695,
      "ick": 696,
      "▁sp": 697,
      "vel": 698,
      "▁dis": 699,
      "▁Ch": 700,
      "▁were": 701,
      "ress": 702,
      "▁also": 703,
      "ild": 704,
      "ence": 705,
      "▁ag": 706,
      "▁any": 707,
      "form": 708,
      "▁He": 709,
      "▁when": 710,
      "ang": 711,
      "ings": 712,
      "ition": 713,
      "▁been": 714,
      "▁our": 715,
      "▁off": 716,
      "ens": 717,
      "ree": 718,
      "ents": 719,
      "ob": 720,
      "▁sc": 721,
      "▁work": 722,
      "▁over": 723,
      "ark": 724,
      "▁what": 725,
      ").": 726,
      "▁year": 727,
      "ove": 728,
      "▁pe": 729,
      "▁|": 730,
      "lic": 731,
      "ound": 732,
      "ink": 733,
      "▁part": 734,
      "▁}": 735,
      "▁just": 736,
      "get": 737,
      "ren": 738,
      "ory": 739,
      "ath": 740,
      "erv": 741,
      "ors": 742,
      "row": 743,
      "▁*": 744,
      "ck": 745,
      "▁than": 746,
      "ne": 747,
      "▁We": 748,
      "----": 749,
      "▁This": 750,
      "▁into": 751,
      "▁she": 752,
      "▁pre": 753,
      "▁fe": 754,
      "``": 755,
      "ph": 756,
      "ov": 757,
      "vers": 758,
      "ull": 759,
      "ft": 760,
      "irst": 761,
      "ople": 762,
      "▁ro": 763,
      "▁no": 764,
      "▁said": 765,
      "▁need": 766,
      "old": 767,
      "),": 768,
      "▁how": 769,
      "ood": 770,
      "fter": 771,
      "▁am": 772,
      "we": 773,
      "ish": 774,
      "▁+": 775,
      "ject": 776,
      "▁bec": 777,
      "ple": 778,
      "ps": 779,
      "ata": 780,
      "ring": 781,
      "▁Re": 782,
      "▁people": 783,
      "▁bl": 784,
      "sel": 785,
      "rent": 786,
      "▁comm": 787,
      "▁tw": 788,
      "eth": 789,
      "=\"": 790,
      "hed": 791,
      "oll": 792,
      "nder": 793,
      "▁[": 794,
      "ause": 795,
      "oy": 796,
      "▁spe": 797,
      "ade": 798,
      ".”": 799,
      "ty": 800,
      "▁its": 801,
      "▁know": 802,
      "▁back": 803,
      "▁des": 804,
      "ock": 805,
      "ual": 806,
      "▁Wh": 807,
      "▁rec": 808,
      "iss": 809,
      "▁only": 810,
      "ces": 811,
      "itt": 812,
      "▁acc": 813,
      "▁bet": 814,
      "ef": 815,
      "clud": 816,
      "ater": 817,
      "ning": 818,
      "mer": 819,
      "▁ret": 820,
      "round": 821,
      "ian": 822,
      "ious": 823,
      "▁first": 824,
      "▁could": 825,
      "igh": 826,
      "ough": 827,
      "ert": 828,
      "oint": 829,
      "iew": 830,
      "ode": 831,
      "▁use": 832,
      "ates": 833,
      "▁want": 834,
      "▁him": 835,
      "▁add": 836,
      "ric": 837,
      "ond": 838,
      "▁look": 839,
      "▁–": 840,
      "▁make": 841,
      "ons": 842,
      "▁bu": 843,
      "▁fl": 844,
      "▁▁▁▁▁▁▁▁▁▁▁▁": 845,
      "rough": 846,
      "ont": 847,
      "▁ind": 848,
      "sc": 849,
      "wn": 850,
      "\",": 851,
      "ise": 852,
      "▁may": 853,
      "ool": 854,
      "▁see": 855,
      "tern": 856,
      "▁act": 857,
      "▁You": 858,
      "▁An": 859,
      "ss": 860,
      "()": 861,
      "▁most": 862,
      "▁every": 863,
      "==": 864,
      "▁then": 865,
      "▁&": 866,
      "▁two": 867,
      "ram": 868,
      "ex": 869,
      "li": 870,
      "▁hel": 871,
      "▁dif": 872,
      "hen": 873,
      "be": 874,
      "pro": 875,
      "</": 876,
      "▁did": 877,
      "les": 878,
      "yst": 879,
      "▁through": 880,
      "pect": 881,
      "▁under": 882,
      "ily": 883,
      "▁well": 884,
      "▁set": 885,
      "▁after": 886,
      "▁should": 887,
      "lect": 888,
      "ific": 889,
      "▁cons": 890,
      "▁em": 891,
      "uch": 892,
      "▁If": 893,
      "▁way": 894,
      "day": 895,
      "ating": 896,
      "▁pr": 897,
      "ublic": 898,
      "▁att": 899,
      "▁these": 900,
      "▁ke": 901,
      "cre": 902,
      "ting": 903,
      "▁where": 904,
      "ener": 905,
      "▁even": 906,
      "▁class": 907,
      "fore": 908,
      "▁ass": 909,
      "▁play": 910,
      "oss": 911,
      "▁def": 912,
      "▁import": 913,
      "cess": 914,
      "ange": 915,
      "oth": 916,
      "rit": 917,
      "▁now": 918,
      "ble": 919,
      "▁And": 920,
      "▁co": 921,
      "▁don": 922,
      "ize": 923,
      "ced": 924,
      "',": 925,
      "self": 926,
      "ys": 927,
      "▁###": 928,
      "ption": 929,
      "▁supp": 930,
      "▁prov": 931,
      "▁fun": 932,
      "▁rem": 933,
      "▁good": 934,
      "aw": 935,
      "up": 936,
      "▁sm": 937,
      "ments": 938,
      "ife": 939,
      "▁inv": 940,
      "▁because": 941,
      "▁very": 942,
      "als": 943,
      "ities": 944,
      "gin": 945,
      "ystem": 946,
      "▁ph": 947,
      "▁reg": 948,
      "ix": 949,
      "▁help": 950,
      "▁includ": 951,
      "▁Se": 952,
      "▁start": 953,
      "aking": 954,
      "▁fin": 955,
      "io": 956,
      "▁many": 957,
      "erm": 958,
      "▁think": 959,
      "ible": 960,
      "ax": 961,
      "▁end": 962,
      "▁col": 963,
      "▁inst": 964,
      "▁return": 965,
      "ful": 966,
      "ular": 967,
      "ower": 968,
      "ward": 969,
      "▁produ": 970,
      "▁rel": 971,
      "▁down": 972,
      "other": 973,
      "▁much": 974,
      "▁Un": 975,
      "ght": 976,
      "▁again": 977,
      "ased": 978,
      "▁years": 979,
      "ative": 980,
      "ict": 981,
      "ility": 982,
      "▁ob": 983,
      "ork": 984,
      "▁right": 985,
      "atch": 986,
      "▁tra": 987,
      "▁As": 988,
      "ident": 989,
      "▁ac": 990,
      "▁int": 991,
      "its": 992,
      "▁long": 993,
      "olog": 994,
      "▁ent": 995,
      "▁val": 996,
      "▁But": 997,
      "erson": 998,
      "rib": 999,
      "▁does": 1000,
      "▁stud": 1001,
      "iel": 1002,
      "riv": 1003,
      "any": 1004,
      "ues": 1005,
      "ell": 1006,
      "ient": 1007,
      "ics": 1008,
      "ars": 1009,
      "▁Com": 1010,
      "ract": 1011,
      "ash": 1012,
      "ures": 1013,
      "arch": 1014,
      "St": 1015,
      "▁diffe": 1016,
      "ational": 1017,
      "▁being": 1018,
      "und": 1019,
      "read": 1020,
      "▁own": 1021,
      "hes": 1022,
      "▁gu": 1023,
      "▁sub": 1024,
      "▁before": 1025,
      "▁call": 1026,
      "▁som": 1027,
      "The": 1028,
      "▁Pro": 1029,
      "ied": 1030,
      "pr": 1031,
      "▁such": 1032,
      "ually": 1033,
      "_{": 1034,
      "▁i": 1035,
      "▁mod": 1036,
      "▁serv": 1037,
      "▁Al": 1038,
      "ng": 1039,
      "ype": 1040,
      "▁For": 1041,
      ",”": 1042,
      "velop": 1043,
      "uring": 1044,
      "▁che": 1045,
      "▁requ": 1046,
      "▁here": 1047,
      "▁▁▁▁▁▁▁▁▁▁▁▁▁": 1048,
      "cy": 1049,
      "▁hand": 1050,
      "ec": 1051,
      "▁exper": 1052,
      "▁eff": 1053,
      "▁take": 1054,
      "ek": 1055,
      "pen": 1056,
      "▁read": 1057,
      "▁sim": 1058,
      "▁min": 1059,
      "▁find": 1060,
      "::": 1061,
      "▁num": 1062,
      "ank": 1063,
      "ern": 1064,
      "▁great": 1065,
      "...": 1066,
      "▁mon": 1067,
      "▁ins": 1068,
      "▁.": 1069,
      "ts": 1070,
      "▁show": 1071,
      "ollow": 1072,
      "▁point": 1073,
      "put": 1074,
      "line": 1075,
      "▁spec": 1076,
      "->": 1077,
      "▁var": 1078,
      "air": 1079,
      "ven": 1080,
      "iness": 1081,
      "ited": 1082,
      "▁those": 1083,
      "led": 1084,
      "alth": 1085,
      "▁high": 1086,
      "way": 1087,
      "ner": 1088,
      "ince": 1089,
      "ices": 1090,
      "ave": 1091,
      "▁dec": 1092,
      "alk": 1093,
      "ason": 1094,
      "ms": 1095,
      "gan": 1096,
      "▁day": 1097,
      "▁el": 1098,
      "▁trans": 1099,
      "ield": 1100,
      "hip": 1101,
      "▁How": 1102,
      "ience": 1103,
      "▁made": 1104,
      "▁bel": 1105,
      "▁gr": 1106,
      "imes": 1107,
      "▁public": 1108,
      "ser": 1109,
      "az": 1110,
      "▁cre": 1111,
      "▁pres": 1112,
      "err": 1113,
      "▁sur": 1114,
      "▁inter": 1115,
      "▁loc": 1116,
      "▁used": 1117,
      "▁cur": 1118,
      "▁last": 1119,
      "ug": 1120,
      "▁There": 1121,
      "▁bus": 1122,
      "ever": 1123,
      "://": 1124,
      "ctions": 1125,
      "--------": 1126,
      "▁ext": 1127,
      "▁still": 1128,
      "):": 1129,
      "tt": 1130,
      "▁while": 1131,
      "▁going": 1132,
      "▁run": 1133,
      "```": 1134,
      "▁world": 1135,
      "amp": 1136,
      "ale": 1137,
      "▁New": 1138,
      "▁car": 1139,
      "▁inte": 1140,
      "▁really": 1141,
      "ages": 1142,
      "arket": 1143,
      "ution": 1144,
      "\">": 1145,
      "rest": 1146,
      "ather": 1147,
      "▁char": 1148,
      "app": 1149,
      "▁str": 1150,
      "▁around": 1151,
      "▁br": 1152,
      "▁same": 1153,
      "▁follow": 1154,
      "ger": 1155,
      "▁De": 1156,
      "▁best": 1157,
      "ah": 1158,
      "ute": 1159,
      "▁Sh": 1160,
      "▁system": 1161,
      "▁Ar": 1162,
      "the": 1163,
      "ween": 1164,
      "▁say": 1165,
      "▁bo": 1166,
      "oun": 1167,
      "▁ser": 1168,
      "▁@": 1169,
      "▁pol": 1170,
      "ody": 1171,
      "(\"": 1172,
      "irect": 1173,
      "▁ra": 1174,
      "▁each": 1175,
      "uth": 1176,
      "▁`": 1177,
      "oad": 1178,
      "▁person": 1179,
      "▁life": 1180,
      "▁sl": 1181,
      "ins": 1182,
      "▁const": 1183,
      "▁:": 1184,
      "ci": 1185,
      "▁different": 1186,
      "▁She": 1187,
      "▁fam": 1188,
      "▁data": 1189,
      "co": 1190,
      "arn": 1191,
      "view": 1192,
      "vent": 1193,
      "iet": 1194,
      "▁They": 1195,
      "cond": 1196,
      "▁using": 1197,
      "▁real": 1198,
      "▁count": 1199,
      "\":": 1200,
      "▁med": 1201,
      "▁//": 1202,
      "In": 1203,
      "ives": 1204,
      "roup": 1205,
      "▁▁▁▁▁▁▁▁▁▁": 1206,
      "▁So": 1207,
      "der": 1208,
      "▁develop": 1209,
      "▁/": 1210,
      "▁exp": 1211,
      "▁```": 1212,
      "akes": 1213,
      "▁prog": 1214,
      "chool": 1215,
      "ames": 1216,
      "▁det": 1217,
      "br": 1218,
      "▁between": 1219,
      "ines": 1220,
      "ouse": 1221,
      "▁too": 1222,
      "▁sign": 1223,
      "▁result": 1224,
      "▁gl": 1225,
      "▁gener": 1226,
      "▁mem": 1227,
      "▁form": 1228,
      "ness": 1229,
      "ER": 1230,
      "▁On": 1231,
      "man": 1232,
      "par": 1233,
      "anc": 1234,
      "▁‘": 1235,
      "('": 1236,
      "▁feel": 1237,
      "▁found": 1238,
      "ought": 1239,
      "▁av": 1240,
      "▁cor": 1241,
      "land": 1242,
      "ton": 1243,
      "ething": 1244,
      "ying": 1245,
      "sp": 1246,
      "▁home": 1247,
      "▁lead": 1248,
      "▁>": 1249,
      "formation": 1250,
      "▁list": 1251,
      "▁child": 1252,
      "▁Q": 1253,
      "elf": 1254,
      ".\"": 1255,
      "cept": 1256,
      "ement": 1257,
      "de": 1258,
      "▁both": 1259,
      "▁comple": 1260,
      "▁name": 1261,
      "▁ed": 1262,
      "ized": 1263,
      "ier": 1264,
      "▁happ": 1265,
      "set": 1266,
      "▁state": 1267,
      "chn": 1268,
      "▁few": 1269,
      "▁support": 1270,
      "text": 1271,
      "▁Le": 1272,
      "__": 1273,
      "thing": 1274,
      "ined": 1275,
      "▁lot": 1276,
      "atic": 1277,
      "▁conf": 1278,
      "▁Cl": 1279,
      "▁team": 1280,
      "ittle": 1281,
      "▁test": 1282,
      "▁let": 1283,
      "▁art": 1284,
      "▁cour": 1285,
      "ider": 1286,
      "ret": 1287,
      "ared": 1288,
      "ved": 1289,
      "ving": 1290,
      "▁business": 1291,
      "arm": 1292,
      "ruct": 1293,
      "ator": 1294,
      "ann": 1295,
      "fl": 1296,
      "me": 1297,
      "▁things": 1298,
      "ways": 1299,
      "gg": 1300,
      "oot": 1301,
      "▁What": 1302,
      "ters": 1303,
      "▁head": 1304,
      "▁something": 1305,
      "ivers": 1306,
      "dd": 1307,
      "uc": 1308,
      "▁cle": 1309,
      "oid": 1310,
      "▁fact": 1311,
      "▁vis": 1312,
      "sh": 1313,
      "ired": 1314,
      "val": 1315,
      "▁market": 1316,
      "▁dist": 1317,
      "ross": 1318,
      "▁open": 1319,
      "▁fil": 1320,
      "▁care": 1321,
      "▁post": 1322,
      "pos": 1323,
      "arly": 1324,
      "eng": 1325,
      "▁three": 1326,
      "▁place": 1327,
      "ital": 1328,
      "▁To": 1329,
      "▁eas": 1330,
      "▁sol": 1331,
      "less": 1332,
      "▁poss": 1333,
      "ature": 1334,
      "riend": 1335,
      "cent": 1336,
      "))": 1337,
      "ets": 1338,
      "****": 1339,
      "ten": 1340,
      "▁sk": 1341,
      "▁function": 1342,
      "tr": 1343,
      "▁might": 1344,
      "▁game": 1345,
      "▁$\\": 1346,
      "▁self": 1347,
      "ists": 1348,
      "▁lar": 1349,
      "▁process": 1350,
      "▁Tr": 1351,
      "▁got": 1352,
      "ense": 1353,
      "▁commun": 1354,
      "▁week": 1355,
      "sw": 1356,
      "▁build": 1357,
      "▁put": 1358,
      "▁little": 1359,
      "pon": 1360,
      "gy": 1361,
      "▁del": 1362,
      "▁pass": 1363,
      "▁keep": 1364,
      "▁Ex": 1365,
      "▁top": 1366,
      "vern": 1367,
      "meric": 1368,
      "ants": 1369,
      "();": 1370,
      "IN": 1371,
      "▁exam": 1372,
      "{\\": 1373,
      "▁When": 1374,
      "▁number": 1375,
      "▁better": 1376,
      "bs": 1377,
      "▁come": 1378,
      "▁month": 1379,
      "▁iss": 1380,
      "▁another": 1381,
      "yp": 1382,
      "uss": 1383,
      "bo": 1384,
      "▁book": 1385,
      "▁fr": 1386,
      "ym": 1387,
      "▁ref": 1388,
      "▁wr": 1389,
      "▁contin": 1390,
      "ustom": 1391,
      "▁cr": 1392,
      "els": 1393,
      "▁partic": 1394,
      "ism": 1395,
      "ows": 1396,
      "▁next": 1397,
      "▁That": 1398,
      "▁never": 1399,
      "▁cent": 1400,
      "▁since": 1401,
      "▁proble": 1402,
      "▁quest": 1403,
      "▁turn": 1404,
      "ON": 1405,
      "of": 1406,
      "ik": 1407,
      "▁program": 1408,
      "aj": 1409,
      "▁appro": 1410,
      "ray": 1411,
      "▁without": 1412,
      "ource": 1413,
      "▁must": 1414,
      "▁case": 1415,
      "▁main": 1416,
      "rol": 1417,
      "▁second": 1418,
      "▁ask": 1419,
      "▁rest": 1420,
      "▁par": 1421,
      "▁dep": 1422,
      "▁Is": 1423,
      "▁health": 1424,
      "cur": 1425,
      "▁report": 1426,
      "▁Bl": 1427,
      "▁small": 1428,
      "▁Z": 1429,
      "▁product": 1430,
      "cri": 1431,
      "ref": 1432,
      "▁during": 1433,
      "ology": 1434,
      "▁pos": 1435,
      "gr": 1436,
      "▁information": 1437,
      "▁la": 1438,
      "====": 1439,
      "ote": 1440,
      "▁tri": 1441,
      "son": 1442,
      "▁Americ": 1443,
      "▁sure": 1444,
      "stand": 1445,
      "▁always": 1446,
      "ves": 1447,
      "▁design": 1448,
      "raph": 1449,
      "▁rep": 1450,
      "▁adv": 1451,
      "ted": 1452,
      "▁full": 1453,
      "▁Con": 1454,
      "▁expl": 1455,
      "▁soc": 1456,
      "ream": 1457,
      "bers": 1458,
      "▁seem": 1459,
      "ma": 1460,
      "name": 1461,
      "que": 1462,
      "▁big": 1463,
      "▁Be": 1464,
      "rence": 1465,
      "▁Pl": 1466,
      "ethod": 1467,
      "htt": 1468,
      "▁Ind": 1469,
      "ery": 1470,
      "▁pur": 1471,
      "▁--": 1472,
      "▁imp": 1473,
      "▁ide": 1474,
      "▁disc": 1475,
      "uck": 1476,
      "▁incre": 1477,
      "ional": 1478,
      "▁plan": 1479,
      "▁hard": 1480,
      "▁effect": 1481,
      "▁pat": 1482,
      "▁prof": 1483,
      "ccess": 1484,
      "inal": 1485,
      "ploy": 1486,
      "▁against": 1487,
      "ertain": 1488,
      "yn": 1489,
      "oney": 1490,
      "ished": 1491,
      "▁Fr": 1492,
      "▁interest": 1493,
      "lease": 1494,
      "▁mat": 1495,
      "ww": 1496,
      "▁techn": 1497,
      "ining": 1498,
      "▁\r": 1499,
      "ware": 1500,
      "ead": 1501,
      "iving": 1502,
      "▁love": 1503,
      "▁stand": 1504,
      "▁old": 1505,
      "▁grow": 1506,
      "ically": 1507,
      "ases": 1508,
      "ling": 1509,
      "ality": 1510,
      "▁free": 1511,
      "▁provid": 1512,
      "min": 1513,
      "▁level": 1514,
      "▁All": 1515,
      "here": 1516,
      "▁power": 1517,
      "ision": 1518,
      "oh": 1519,
      "▁bre": 1520,
      "▁didn": 1521,
      "▁school": 1522,
      "▁mov": 1523,
      "▁invest": 1524,
      "ately": 1525,
      "▁important": 1526,
      "▁pay": 1527,
      "ural": 1528,
      "▁project": 1529,
      "▁current": 1530,
      "att": 1531,
      "reen": 1532,
      "▁able": 1533,
      "ush": 1534,
      "illion": 1535,
      "ien": 1536,
      "▁z": 1537,
      "ST": 1538,
      "ember": 1539,
      "▁direct": 1540,
      "orn": 1541,
      "▁wom": 1542,
      "med": 1543,
      "▁opp": 1544,
      "▁value": 1545,
      "▁est": 1546,
      "▁company": 1547,
      "▁cho": 1548,
      "ering": 1549,
      "ably": 1550,
      "▁water": 1551,
      "ument": 1552,
      "▁ca": 1553,
      "▁thought": 1554,
      "arent": 1555,
      "▁friend": 1556,
      "▁else": 1557,
      "▁says": 1558,
      "▁unt": 1559,
      "▁belie": 1560,
      "▁less": 1561,
      "▁With": 1562,
      "RE": 1563,
      "▁Chr": 1564,
      "AT": 1565,
      "▁met": 1566,
      "▁Sp": 1567,
      "▁perform": 1568,
      "▁oper": 1569,
      "▁away": 1570,
      "ope": 1571,
      "iven": 1572,
      "▁Sc": 1573,
      "▁inc": 1574,
      "▁type": 1575,
      "▁family": 1576,
      "▁expect": 1577,
      "Th": 1578,
      "gs": 1579,
      "It": 1580,
      "▁beh": 1581,
      "▁organ": 1582,
      "pped": 1583,
      "▁My": 1584,
      "▁line": 1585,
      "for": 1586,
      "▁—": 1587,
      "▁give": 1588,
      "▁User": 1589,
      "ee": 1590,
      "ailable": 1591,
      "▁equ": 1592,
      "ats": 1593,
      "fr": 1594,
      "add": 1595,
      "comm": 1596,
      "ral": 1597,
      "ains": 1598,
      "▁Ph": 1599,
      "ization": 1600,
      "▁hum": 1601,
      "▁ele": 1602,
      "▁thing": 1603,
      "▁At": 1604,
      "▁di": 1605,
      "▁sit": 1606,
      "▁including": 1607,
      "▁dem": 1608,
      "ivid": 1609,
      "ott": 1610,
      "version": 1611,
      "let": 1612,
      "▁Te": 1613,
      "▁Or": 1614,
      "ior": 1615,
      "ention": 1616,
      "▁why": 1617,
      "▁chang": 1618,
      "▁rece": 1619,
      "outh": 1620,
      "div": 1621,
      "▁proper": 1622,
      "▁es": 1623,
      "uff": 1624,
      "▁manag": 1625,
      "▁left": 1626,
      "▁change": 1627,
      "ump": 1628,
      "ird": 1629,
      "▁po": 1630,
      "ised": 1631,
      "▁custom": 1632,
      "ault": 1633,
      ",\"": 1634,
      "by": 1635,
      "▁bro": 1636,
      "work": 1637,
      "▁cost": 1638,
      "▁days": 1639,
      "ards": 1640,
      "▁win": 1641,
      "ered": 1642,
      "this": 1643,
      "▁word": 1644,
      "math": 1645,
      "▁mus": 1646,
      "}\\": 1647,
      "▁Res": 1648,
      "▁et": 1649,
      "ron": 1650,
      "▁order": 1651,
      "▁####": 1652,
      "▁No": 1653,
      "▁US": 1654,
      "▁aff": 1655,
      "ask": 1656,
      ".,": 1657,
      "ready": 1658,
      "▁mar": 1659,
      "ently": 1660,
      "▁until": 1661,
      "▁opt": 1662,
      "▁light": 1663,
      "▁=>": 1664,
      "▁_": 1665,
      "ified": 1666,
      "▁aut": 1667,
      "vernment": 1668,
      "▁pop": 1669,
      "▁ann": 1670,
      "},": 1671,
      "ait": 1672,
      "▁experience": 1673,
      "▁prote": 1674,
      "▁within": 1675,
      "ina": 1676,
      "▁sw": 1677,
      "▁Mar": 1678,
      "raw": 1679,
      "iversity": 1680,
      "ission": 1681,
      "equ": 1682,
      "▁money": 1683,
      "ortun": 1684,
      "▁cap": 1685,
      "ured": 1686,
      "fig": 1687,
      "▁making": 1688,
      "uthor": 1689,
      "▁true": 1690,
      "vious": 1691,
      "abel": 1692,
      "aster": 1693,
      "▁law": 1694,
      "elt": 1695,
      "ential": 1696,
      "▁rese": 1697,
      "ots": 1698,
      "ID": 1699,
      "tain": 1700,
      "back": 1701,
      "swer": 1702,
      "▁job": 1703,
      "▁bit": 1704,
      "ium": 1705,
      "▁X": 1706,
      "▁understand": 1707,
      "ours": 1708,
      "▁enough": 1709,
      "▁view": 1710,
      "ency": 1711,
      "▁working": 1712,
      "▁available": 1713,
      "Con": 1714,
      "iron": 1715,
      "▁four": 1716,
      "Id": 1717,
      "▁group": 1718,
      "ane": 1719,
      "▁term": 1720,
      "▁ben": 1721,
      "ending": 1722,
      "▁local": 1723,
      "▁children": 1724,
      "▁allow": 1725,
      "▁sing": 1726,
      "▁Go": 1727,
      "▁Comm": 1728,
      "▁tell": 1729,
      "▁prom": 1730,
      "not": 1731,
      "▁kind": 1732,
      "Pro": 1733,
      "▁x": 1734,
      "▁One": 1735,
      "▁May": 1736,
      "^{": 1737,
      "▁already": 1738,
      "▁event": 1739,
      "bl": 1740,
      "?”": 1741,
      "ories": 1742,
      "▁leg": 1743,
      "▁far": 1744,
      "▁food": 1745,
      "▁hist": 1746,
      "▁check": 1747,
      "ording": 1748,
      "▁Col": 1749,
      "ole": 1750,
      "utes": 1751,
      "▁addition": 1752,
      "itive": 1753,
      "We": 1754,
      "▁move": 1755,
      "▁done": 1756,
      "▁ve": 1757,
      "ries": 1758,
      "▁large": 1759,
      "▁dev": 1760,
      "▁mean": 1761,
      "roll": 1762,
      "itions": 1763,
      "▁past": 1764,
      "▁priv": 1765,
      "ged": 1766,
      "AR": 1767,
      "▁ey": 1768,
      "▁,": 1769,
      "ify": 1770,
      "ability": 1771,
      "right": 1772,
      "▁though": 1773,
      "▁Ad": 1774,
      "go": 1775,
      "▁resp": 1776,
      "play": 1777,
      "▁times": 1778,
      "idd": 1779,
      "ocus": 1780,
      "▁try": 1781,
      "▁called": 1782,
      "error": 1783,
      "▁having": 1784,
      "ients": 1785,
      "▁present": 1786,
      "▁body": 1787,
      "▁talk": 1788,
      "yle": 1789,
      "side": 1790,
      "▁Christ": 1791,
      "icle": 1792,
      "aces": 1793,
      "aut": 1794,
      "▁actually": 1795,
      "▁dr": 1796,
      "▁method": 1797,
      "date": 1798,
      "▁night": 1799,
      "▁side": 1800,
      "ived": 1801,
      "essage": 1802,
      "▁intern": 1803,
      "▁!": 1804,
      "▁course": 1805,
      "▁following": 1806,
      "}$": 1807,
      "ither": 1808,
      "▁However": 1809,
      "ched": 1810,
      "rop": 1811,
      "▁example": 1812,
      "▁tem": 1813,
      "▁along": 1814,
      "▁Am": 1815,
      "▁service": 1816,
      "▁often": 1817,
      "osed": 1818,
      "▁God": 1819,
      "▁looking": 1820,
      "▁sal": 1821,
      "ponse": 1822,
      "ler": 1823,
      "▁today": 1824,
      "veral": 1825,
      "▁pa": 1826,
      "▁doesn": 1827,
      "Ex": 1828,
      "oci": 1829,
      "▁success": 1830,
      "ike": 1831,
      "conom": 1832,
      "▁Do": 1833,
      "▁meet": 1834,
      "alf": 1835,
      "gether": 1836,
      "▁key": 1837,
      "ley": 1838,
      "▁create": 1839,
      "OR": 1840,
      "▁together": 1841,
      "▁possible": 1842,
      "▁non": 1843,
      "▁doing": 1844,
      "che": 1845,
      "fo": 1846,
      "▁cond": 1847,
      "ml": 1848,
      "score": 1849,
      "▁certain": 1850,
      "por": 1851,
      "▁access": 1852,
      "arget": 1853,
      "▁bas": 1854,
      "itle": 1855,
      "▁eng": 1856,
      "col": 1857,
      "▁air": 1858,
      "Name": 1859,
      "▁</": 1860,
      "iety": 1861,
      "str": 1862,
      "▁impro": 1863,
      "ajor": 1864,
      "▁mom": 1865,
      "▁Can": 1866,
      "rap": 1867,
      "▁ever": 1868,
      "],": 1869,
      "▁pot": 1870,
      "aps": 1871,
      "ination": 1872,
      "nect": 1873,
      "ister": 1874,
      "orth": 1875,
      "▁came": 1876,
      "▁area": 1877,
      "▁pract": 1878,
      "time": 1879,
      "▁charact": 1880,
      "▁short": 1881,
      "▁getting": 1882,
      "use": 1883,
      "▁dri": 1884,
      "return": 1885,
      "▁least": 1886,
      "EN": 1887,
      "ideo": 1888,
      "over": 1889,
      "lish": 1890,
      "▁men": 1891,
      "▁creat": 1892,
      "▁App": 1893,
      "▁activ": 1894,
      "▁happen": 1895,
      "▁begin": 1896,
      "▁fore": 1897,
      "▁online": 1898,
      "▁mult": 1899,
      "▁problem": 1900,
      "▁mind": 1901,
      "ule": 1902,
      "ury": 1903,
      "▁season": 1904,
      "uro": 1905,
      "▁writ": 1906,
      "eb": 1907,
      "▁house": 1908,
      "▁After": 1909,
      "▁applic": 1910,
      "alse": 1911,
      "ising": 1912,
      "most": 1913,
      "aim": 1914,
      "urs": 1915,
      "ails": 1916,
      "▁complete": 1917,
      "▁took": 1918,
      "▁htt": 1919,
      "uture": 1920,
      "ateg": 1921,
      "▁means": 1922,
      "eter": 1923,
      "ohn": 1924,
      "▁become": 1925,
      "▁field": 1926,
      "cle": 1927,
      "ividual": 1928,
      "ands": 1929,
      "lection": 1930,
      "▁given": 1931,
      "ended": 1932,
      "▁consider": 1933,
      "iver": 1934,
      "ids": 1935,
      "▁occ": 1936,
      "mod": 1937,
      "▁provide": 1938,
      "▁once": 1939,
      "org": 1940,
      "▁==": 1941,
      "▁hold": 1942,
      "▁learn": 1943,
      "▁Man": 1944,
      "ape": 1945,
      "▁prob": 1946,
      "▁account": 1947,
      "▁employ": 1948,
      "fer": 1949,
      "▁makes": 1950,
      "▁net": 1951,
      "▁typ": 1952,
      "▁lim": 1953,
      "▁others": 1954,
      "▁control": 1955,
      "data": 1956,
      "ney": 1957,
      "mber": 1958,
      "une": 1959,
      "▁These": 1960,
      "ances": 1961,
      "viron": 1962,
      "▁anal": 1963,
      "▁country": 1964,
      "aring": 1965,
      "load": 1966,
      "▁room": 1967,
      "▁story": 1968,
      "▁several": 1969,
      "▁based": 1970,
      "▁offic": 1971,
      "AL": 1972,
      "▁file": 1973,
      "ception": 1974,
      "ration": 1975,
      "ference": 1976,
      "▁across": 1977,
      "rem": 1978,
      "----------------": 1979,
      "https": 1980,
      "head": 1981,
      "▁low": 1982,
      "')": 1983,
      "itor": 1984,
      "▁went": 1985,
      "▁social": 1986,
      "enn": 1987,
      "▁record": 1988,
      "ique": 1989,
      "▁▁▁": 1990,
      "ills": 1991,
      "}}": 1992,
      "core": 1993,
      "ext": 1994,
      "(\\": 1995,
      "rain": 1996,
      "▁pain": 1997,
      "▁trad": 1998,
      "▁Su": 1999,
      "hing": 2000,
      "\")": 2001,
      "▁orig": 2002,
      "joy": 2003,
      "▁focus": 2004,
      "▁government": 2005,
      "AN": 2006,
      "▁live": 2007,
      "▁pack": 2008,
      "▁special": 2009,
      "▁reason": 2010,
      "▁students": 2011,
      "▁**": 2012,
      "▁Eng": 2013,
      "▁Fl": 2014,
      "ored": 2015,
      "ctor": 2016,
      "ung": 2017,
      "▁By": 2018,
      "▁particular": 2019,
      "def": 2020,
      "cont": 2021,
      "▁Car": 2022,
      "isk": 2023,
      "ides": 2024,
      "LE": 2025,
      "key": 2026,
      "▁Not": 2027,
      "uild": 2028,
      "▁step": 2029,
      "▁fac": 2030,
      "▁started": 2031,
      "▁individual": 2032,
      "▁deal": 2033,
      "](": 2034,
      "▁indust": 2035,
      "acy": 2036,
      "Ch": 2037,
      "pping": 2038,
      "▁won": 2039,
      "▁require": 2040,
      "▁community": 2041,
      "wards": 2042,
      "▁question": 2043,
      "requ": 2044,
      "cer": 2045,
      "wh": 2046,
      "atus": 2047,
      "ession": 2048,
      "▁Qu": 2049,
      "▁En": 2050,
      "ches": 2051,
      "▁fund": 2052,
      "▁Br": 2053,
      "▁later": 2054,
      "ai": 2055,
      "▁major": 2056,
      "▁quick": 2057,
      "▁include": 2058,
      "ene": 2059,
      "▁mil": 2060,
      "AM": 2061,
      "▁Pr": 2062,
      "part": 2063,
      "▁elect": 2064,
      "▁ident": 2065,
      "▁redu": 2066,
      "▁Cent": 2067,
      "resent": 2068,
      "▁face": 2069,
      "▁John": 2070,
      "atures": 2071,
      "ulation": 2072,
      "ox": 2073,
      "▁break": 2074,
      "IT": 2075,
      "▁told": 2076,
      "▁Ste": 2077,
      "▁yet": 2078,
      "▁research": 2079,
      "▁million": 2080,
      "▁ear": 2081,
      "fect": 2082,
      "▁needs": 2083,
      "▁close": 2084,
      "▁young": 2085,
      "▁points": 2086,
      "aff": 2087,
      "▁text": 2088,
      "▁Inst": 2089,
      "aken": 2090,
      "ources": 2091,
      "▁sound": 2092,
      "reg": 2093,
      "ele": 2094,
      "▁services": 2095,
      "▁comes": 2096,
      "new": 2097,
      "urther": 2098,
      "▁log": 2099,
      "test": 2100,
      "▁benef": 2101,
      "▁anything": 2102,
      "▁seen": 2103,
      "▁treat": 2104,
      "▁strong": 2105,
      "▁war": 2106,
      "▁sum": 2107,
      "▁lo": 2108,
      "ams": 2109,
      "▁future": 2110,
      "uly": 2111,
      "▁University": 2112,
      "ift": 2113,
      "▁hig": 2114,
      "▁Co": 2115,
      "▁specific": 2116,
      "ey": 2117,
      "ones": 2118,
      "▁object": 2119,
      "▁final": 2120,
      "▁Im": 2121,
      "osp": 2122,
      "▁someone": 2123,
      "ips": 2124,
      "vironment": 2125,
      "td": 2126,
      "▁works": 2127,
      "▁model": 2128,
      "▁%": 2129,
      "orld": 2130,
      "duct": 2131,
      "▁phot": 2132,
      "▁wind": 2133,
      "▁women": 2134,
      "▁tot": 2135,
      "▁Gr": 2136,
      "▁human": 2137,
      "ians": 2138,
      "my": 2139,
      "curity": 2140,
      "▁land": 2141,
      "▁private": 2142,
      "▁invol": 2143,
      "ully": 2144,
      "AS": 2145,
      "type": 2146,
      "▁easy": 2147,
      "▁cal": 2148,
      "ength": 2149,
      "▁space": 2150,
      "▁enjoy": 2151,
      "▁months": 2152,
      "vert": 2153,
      "obal": 2154,
      "▁cou": 2155,
      "face": 2156,
      "▁econom": 2157,
      "irl": 2158,
      "▁doc": 2159,
      "▁site": 2160,
      "▁early": 2161,
      "erc": 2162,
      "▁American": 2163,
      "cially": 2164,
      "▁▁▁▁▁▁▁▁▁▁▁▁▁▁": 2165,
      "▁ener": 2166,
      "▁development": 2167,
      "Type": 2168,
      "rew": 2169,
      "▁super": 2170,
      "▁Now": 2171,
      "ffic": 2172,
      "▁Me": 2173,
      "▁webs": 2174,
      "▁everything": 2175,
      "Com": 2176,
      "▁init": 2177,
      "iod": 2178,
      "▁members": 2179,
      "▁press": 2180,
      "▁known": 2181,
      "▁city": 2182,
      "angu": 2183,
      "▁enc": 2184,
      "unch": 2185,
      "▁content": 2186,
      "String": 2187,
      "▁walk": 2188,
      "begin": 2189,
      "ume": 2190,
      "amb": 2191,
      "anks": 2192,
      "▁Cont": 2193,
      "af": 2194,
      "▁soft": 2195,
      "irt": 2196,
      "▁trying": 2197,
      "▁results": 2198,
      "verage": 2199,
      "ems": 2200,
      "▁due": 2201,
      "▁repl": 2202,
      "▁Che": 2203,
      "ror": 2204,
      "▁port": 2205,
      "ging": 2206,
      "ball": 2207,
      "▁ago": 2208,
      "********": 2209,
      "▁tre": 2210,
      "▁discuss": 2211,
      "▁single": 2212,
      "▁above": 2213,
      "▁camp": 2214,
      "ends": 2215,
      "itch": 2216,
      "▁void": 2217,
      "▁music": 2218,
      "ober": 2219,
      "log": 2220,
      "illed": 2221,
      "▁whole": 2222,
      "▁rele": 2223,
      "icy": 2224,
      "▁fav": 2225,
      "....": 2226,
      "ES": 2227,
      "▁diff": 2228,
      "▁Some": 2229,
      "▁idea": 2230,
      "aterial": 2231,
      "ply": 2232,
      "▁opportun": 2233,
      "ison": 2234,
      "['": 2235,
      "cal": 2236,
      "ued": 2237,
      "oor": 2238,
      "▁appear": 2239,
      "rict": 2240,
      "used": 2241,
      "ression": 2242,
      "▁bring": 2243,
      "idth": 2244,
      "now": 2245,
      "▁believe": 2246,
      "▁heart": 2247,
      "▁His": 2248,
      "▁either": 2249,
      "ules": 2250,
      "▁cut": 2251,
      "▁mor": 2252,
      "▁vol": 2253,
      "oon": 2254,
      "▁code": 2255,
      "uation": 2256,
      "▁ant": 2257,
      "ables": 2258,
      "hat": 2259,
      "ples": 2260,
      "▁Ass": 2261,
      "iter": 2262,
      "▁visit": 2263,
      "▁Ab": 2264,
      "▁half": 2265,
      "▁games": 2266,
      "though": 2267,
      "▁asked": 2268,
      "▁bad": 2269,
      "ilar": 2270,
      "raft": 2271,
      "▁comb": 2272,
      "▁polit": 2273,
      "▁video": 2274,
      "idence": 2275,
      "']": 2276,
      "▁hours": 2277,
      "▁dou": 2278,
      "ained": 2279,
      "action": 2280,
      "▁review": 2281,
      "ges": 2282,
      "▁conc": 2283,
      "uf": 2284,
      "▁whether": 2285,
      "▁compan": 2286,
      "▁offer": 2287,
      "file": 2288,
      "▁amount": 2289,
      "▁Med": 2290,
      "utions": 2291,
      "▁almost": 2292,
      "▁probably": 2293,
      "pecially": 2294,
      "▁educ": 2295,
      "AC": 2296,
      "px": 2297,
      "▁pret": 2298,
      "ially": 2299,
      "▁study": 2300,
      "▁taking": 2301,
      "▁United": 2302,
      "ground": 2303,
      "▁sugg": 2304,
      "▁suggest": 2305,
      "ograph": 2306,
      "▁five": 2307,
      "▁compet": 2308,
      "▁wanted": 2309,
      "cing": 2310,
      "▁common": 2311,
      "▁install": 2312,
      "▁tool": 2313,
      "ст": 2314,
      "▁among": 2315,
      "book": 2316,
      "▁size": 2317,
      "▁struct": 2318,
      "oud": 2319,
      ")$": 2320,
      "▁watch": 2321,
      "▁chall": 2322,
      "▁mot": 2323,
      "▁minutes": 2324,
      "▁exist": 2325,
      "▁author": 2326,
      "Re": 2327,
      "ively": 2328,
      "empt": 2329,
      "▁version": 2330,
      "ili": 2331,
      "ervice": 2332,
      "lished": 2333,
      "ibility": 2334,
      "▁arg": 2335,
      "▁position": 2336,
      "ogn": 2337,
      "▁friends": 2338,
      "▁issue": 2339,
      "ache": 2340,
      "▁fall": 2341,
      "▁buy": 2342,
      "▁ste": 2343,
      "▁energy": 2344,
      "▁miss": 2345,
      "▁user": 2346,
      "imate": 2347,
      "lex": 2348,
      "Res": 2349,
      "ze": 2350,
      "▁pub": 2351,
      "▁Min": 2352,
      "▁products": 2353,
      "▁stay": 2354,
      "▁Jan": 2355,
      "Cl": 2356,
      "▁While": 2357,
      "ari": 2358,
      "ourn": 2359,
      "▁deb": 2360,
      "ilities": 2361,
      "▁jo": 2362,
      "▁cult": 2363,
      "▁nothing": 2364,
      "selves": 2365,
      "ried": 2366,
      "ilt": 2367,
      "▁Mr": 2368,
      "▁front": 2369,
      "agn": 2370,
      "▁Just": 2371,
      "ights": 2372,
      "▁Ed": 2373,
      "▁isn": 2374,
      "($": 2375,
      "▁share": 2376,
      "▁personal": 2377,
      "iday": 2378,
      "▁quite": 2379,
      "ators": 2380,
      "ava": 2381,
      "ony": 2382,
      "▁phys": 2383,
      "icro": 2384,
      "icult": 2385,
      "▁fail": 2386,
      "You": 2387,
      "▁parent": 2388,
      "▁Then": 2389,
      "▁Em": 2390,
      "▁pick": 2391,
      "▁Gu": 2392,
      "▁history": 2393,
      "ports": 2394,
      "▁likely": 2395,
      "pec": 2396,
      "▁claim": 2397,
      "▁meas": 2398,
      "▁path": 2399,
      "▁issues": 2400,
      "List": 2401,
      "epend": 2402,
      "▁percent": 2403,
      "▁State": 2404,
      "▁Euro": 2405,
      "Val": 2406,
      "▁Here": 2407,
      "▁cell": 2408,
      "▁Des": 2409,
      "ster": 2410,
      "asing": 2411,
      "▁relations": 2412,
      "▁needed": 2413,
      "irm": 2414,
      "atur": 2415,
      "▁Dr": 2416,
      "▁stop": 2417,
      "pper": 2418,
      "▁signific": 2419,
      "▁page": 2420,
      "▁tax": 2421,
      "ental": 2422,
      "ners": 2423,
      "▁media": 2424,
      "rown": 2425,
      "▁)": 2426,
      "▁series": 2427,
      "▁entire": 2428,
      "ET": 2429,
      "urch": 2430,
      "LL": 2431,
      "lling": 2432,
      "reet": 2433,
      "▁bar": 2434,
      "▁price": 2435,
      "▁everyone": 2436,
      "========": 2437,
      "▁action": 2438,
      "▁Ne": 2439,
      "▁crit": 2440,
      "▁character": 2441,
      "▁sent": 2442,
      "на": 2443,
      "▁target": 2444,
      "▁clear": 2445,
      "▁rather": 2446,
      "▁range": 2447,
      "▁however": 2448,
      "▁abs": 2449,
      "▁п": 2450,
      "▁pri": 2451,
      "off": 2452,
      "umn": 2453,
      "▁behind": 2454,
      "ided": 2455,
      "▁table": 2456,
      "▁news": 2457,
      "}{": 2458,
      "irc": 2459,
      "▁request": 2460,
      "IC": 2461,
      "▁period": 2462,
      "▁coming": 2463,
      "▁wond": 2464,
      "resh": 2465,
      "eta": 2466,
      "▁simple": 2467,
      "list": 2468,
      "▁quality": 2469,
      "▁track": 2470,
      "▁Pe": 2471,
      "ux": 2472,
      "▁Tw": 2473,
      "path": 2474,
      "▁wait": 2475,
      "atter": 2476,
      "▁moment": 2477,
      "▁companies": 2478,
      "label": 2479,
      "gest": 2480,
      "ification": 2481,
      "▁Our": 2482,
      "▁pie": 2483,
      "!!": 2484,
      "order": 2485,
      "▁norm": 2486,
      "▁eyes": 2487,
      "▁op": 2488,
      "hers": 2489,
      "Cont": 2490,
      "▁store": 2491,
      "ancial": 2492,
      "ни": 2493,
      "ication": 2494,
      "▁dig": 2495,
      "atform": 2496,
      "▁Int": 2497,
      "bb": 2498,
      "▁string": 2499,
      "inc": 2500,
      "util": 2501,
      "▁red": 2502,
      "enc": 2503,
      "▁protect": 2504,
      "  ": 2505,
      "Ar": 2506,
      "▁black": 2507,
      "▁ess": 2508,
      "cription": 2509,
      "ires": 2510,
      "\");": 2511,
      "▁taken": 2512,
      "▁host": 2513,
      "opy": 2514,
      "▁further": 2515,
      "▁words": 2516,
      "▁Your": 2517,
      "▁address": 2518,
      "frac": 2519,
      "▁building": 2520,
      "▁environment": 2521,
      "era": 2522,
      "▁Intern": 2523,
      "▁Will": 2524,
      "▁difficult": 2525,
      "_{\\": 2526,
      "ogle": 2527,
      "▁World": 2528,
      "▁website": 2529,
      "▁defin": 2530,
      "opt": 2531,
      "rect": 2532,
      "augh": 2533,
      "].": 2534,
      "▁previous": 2535,
      "▁near": 2536,
      "bar": 2537,
      "▁Cal": 2538,
      "FF": 2539,
      "▁pretty": 2540,
      "▁industry": 2541,
      "▁below": 2542,
      "><": 2543,
      "sub": 2544,
      "▁simply": 2545,
      "abor": 2546,
      "eral": 2547,
      "####": 2548,
      "▁connect": 2549,
      "▁foot": 2550,
      "rel": 2551,
      "ript": 2552,
      "▁id": 2553,
      "▁especially": 2554,
      "ED": 2555,
      ";\r": 2556,
      "▁Pres": 2557,
      "iple": 2558,
      "▁added": 2559,
      "oved": 2560,
      "▁null": 2561,
      "▁More": 2562,
      "▁ens": 2563,
      "lt": 2564,
      "chie": 2565,
      "word": 2566,
      "▁matter": 2567,
      "OT": 2568,
      "issue": 2569,
      "▁Dis": 2570,
      "rodu": 2571,
      "▁general": 2572,
      "IS": 2573,
      "▁wasn": 2574,
      "▁Ge": 2575,
      "▁seems": 2576,
      "atural": 2577,
      "ensive": 2578,
      "▁comput": 2579,
      "▁material": 2580,
      "▁Per": 2581,
      "▁ur": 2582,
      "lege": 2583,
      "olution": 2584,
      "но": 2585,
      "▁respons": 2586,
      "▁Add": 2587,
      "▁necess": 2588,
      "sy": 2589,
      "string": 2590,
      "▁Europe": 2591,
      "▁perfect": 2592,
      "Data": 2593,
      "ruction": 2594,
      "▁options": 2595,
      "▁various": 2596,
      "anguage": 2597,
      "▁represent": 2598,
      "▁running": 2599,
      "js": 2600,
      "▁Answer": 2601,
      "▁Mc": 2602,
      "▁similar": 2603,
      "na": 2604,
      "▁hot": 2605,
      "umb": 2606,
      "▁soon": 2607,
      "▁dam": 2608,
      "▁infl": 2609,
      "ender": 2610,
      "mit": 2611,
      "▁select": 2612,
      "▁attack": 2613,
      "ithub": 2614,
      "▁improve": 2615,
      "▁fig": 2616,
      "▁aud": 2617,
      "▁false": 2618,
      "su": 2619,
      "aced": 2620,
      "▁significant": 2621,
      "▁inside": 2622,
      "▁Ag": 2623,
      "▁saw": 2624,
      "cell": 2625,
      "▁determ": 2626,
      "▁Don": 2627,
      "▁continue": 2628,
      "▁death": 2629,
      "▁changes": 2630,
      "span": 2631,
      "code": 2632,
      "▁York": 2633,
      "▁City": 2634,
      "▁Count": 2635,
      "iol": 2636,
      "iting": 2637,
      "▁print": 2638,
      "▁Oct": 2639,
      "cript": 2640,
      "eks": 2641,
      "ude": 2642,
      "▁compl": 2643,
      "left": 2644,
      "clude": 2645,
      "ises": 2646,
      "▁und": 2647,
      "ille": 2648,
      "room": 2649,
      "▁cred": 2650,
      "▁risk": 2651,
      "ino": 2652,
      "▁ways": 2653,
      "▁effort": 2654,
      "apt": 2655,
      "▁Gl": 2656,
      "▁features": 2657,
      "▁six": 2658,
      "▁beaut": 2659,
      "▁film": 2660,
      "▁From": 2661,
      "▁search": 2662,
      "▁forward": 2663,
      "ername": 2664,
      "ival": 2665,
      "▁exc": 2666,
      "ledge": 2667,
      "▁Har": 2668,
      "▁Pol": 2669,
      "www": 2670,
      "▁recomm": 2671,
      "Tr": 2672,
      "fil": 2673,
      "▁hope": 2674,
      "▁role": 2675,
      "itting": 2676,
      "▁fire": 2677,
      "oice": 2678,
      "ief": 2679,
      "aged": 2680,
      "da": 2681,
      "▁Aug": 2682,
      "AP": 2683,
      "oke": 2684,
      "year": 2685,
      "ension": 2686,
      "arning": 2687,
      "clus": 2688,
      "etimes": 2689,
      "istic": 2690,
      "iff": 2691,
      "unction": 2692,
      "*/": 2693,
      "itted": 2694,
      "▁ground": 2695,
      "ana": 2696,
      "▁performance": 2697,
      "▁higher": 2698,
      "▁Par": 2699,
      "EC": 2700,
      "▁Part": 2701,
      "param": 2702,
      "▁Apr": 2703,
      "value": 2704,
      "▁required": 2705,
      "ysis": 2706,
      "▁questions": 2707,
      "▁sym": 2708,
      "▁Aust": 2709,
      "▁purch": 2710,
      "▁lay": 2711,
      "ada": 2712,
      "▁в": 2713,
      "rc": 2714,
      "▁associ": 2715,
      "▁hom": 2716,
      "artment": 2717,
      "▁technology": 2718,
      "▁Sm": 2719,
      "Score": 2720,
      "▁training": 2721,
      "To": 2722,
      "▁gen": 2723,
      "class": 2724,
      "▁...": 2725,
      "ached": 2726,
      "ites": 2727,
      "▁El": 2728,
      "▁clean": 2729,
      "cast": 2730,
      "▁National": 2731,
      "He": 2732,
      "▁da": 2733,
      "▁instead": 2734,
      "ager": 2735,
      "▁age": 2736,
      "\".": 2737,
      "field": 2738,
      "▁dom": 2739,
      "body": 2740,
      "▁total": 2741,
      "▁Get": 2742,
      "▁Her": 2743,
      "imal": 2744,
      "▁South": 2745,
      "▁Acc": 2746,
      "▁exact": 2747,
      "▁increase": 2748,
      "▁dest": 2749,
      "▁impact": 2750,
      "down": 2751,
      "iddle": 2752,
      "▁vari": 2753,
      "uge": 2754,
      "▁Let": 2755,
      "reed": 2756,
      "▁card": 2757,
      "▁problems": 2758,
      "▁color": 2759,
      "▁looked": 2760,
      "▁sense": 2761,
      "OM": 2762,
      "medi": 2763,
      "▁announ": 2764,
      "▁respect": 2765,
      "▁option": 2766,
      "ees": 2767,
      "▁web": 2768,
      "▁link": 2769,
      "urance": 2770,
      "ра": 2771,
      "github": 2772,
      "▁States": 2773,
      "▁third": 2774,
      "▁cannot": 2775,
      "user": 2776,
      "ga": 2777,
      "ops": 2778,
      "ev": 2779,
      "ags": 2780,
      "▁travel": 2781,
      "▁profess": 2782,
      "plement": 2783,
      "▁Rep": 2784,
      "////": 2785,
      "▁relationship": 2786,
      "box": 2787,
      "▁neg": 2788,
      "▁created": 2789,
      "▁Dep": 2790,
      "▁image": 2791,
      "aching": 2792,
      "hy": 2793,
      "reme": 2794,
      "size": 2795,
      "▁outside": 2796,
      "itten": 2797,
      "▁accept": 2798,
      "▁consum": 2799,
      "▁Bar": 2800,
      "▁anyone": 2801,
      "var": 2802,
      "▁worth": 2803,
      "▁extra": 2804,
      "ocal": 2805,
      "▁players": 2806,
      "▁source": 2807,
      "▁girl": 2808,
      "▁Comp": 2809,
      "aging": 2810,
      "▁white": 2811,
      "▁according": 2812,
      "▁loss": 2813,
      "▁pull": 2814,
      "})": 2815,
      "▁felt": 2816,
      "fully": 2817,
      "ко": 2818,
      "▁Of": 2819,
      "▁longer": 2820,
      "aur": 2821,
      "come": 2822,
      "▁Fin": 2823,
      "▁takes": 2824,
      "aving": 2825,
      "▁yourself": 2826,
      "▁March": 2827,
      "▁rate": 2828,
      "▁usually": 2829,
      "▁oil": 2830,
      "▁Cor": 2831,
      "▁response": 2832,
      "▁pict": 2833,
      "eq": 2834,
      "▁coll": 2835,
      "cret": 2836,
      "▁Ob": 2837,
      "▁static": 2838,
      "▁concern": 2839,
      ".)": 2840,
      "ta": 2841,
      "lement": 2842,
      "overed": 2843,
      "▁particip": 2844,
      "▁potential": 2845,
      "▁held": 2846,
      "aining": 2847,
      "▁fix": 2848,
      "▁sn": 2849,
      "▁hon": 2850,
      "coming": 2851,
      "▁Af": 2852,
      "▁aw": 2853,
      "izing": 2854,
      "▁blood": 2855,
      "▁tou": 2856,
      "ague": 2857,
      "like": 2858,
      "▁achie": 2859,
      "▁ver": 2860,
      "▁road": 2861,
      "▁coun": 2862,
      "osing": 2863,
      "▁mass": 2864,
      "▁living": 2865,
      "▁original": 2866,
      "▁experien": 2867,
      "▁shows": 2868,
      "▁events": 2869,
      "▁blog": 2870,
      "▁prim": 2871,
      "▁block": 2872,
      "▁base": 2873,
      "▁Pa": 2874,
      "mon": 2875,
      "▁leave": 2876,
      "▁myself": 2877,
      "▁property": 2878,
      "▁hit": 2879,
      "leep": 2880,
      "▁Reg": 2881,
      "▁contact": 2882,
      "▁sat": 2883,
      "▁knew": 2884,
      "ties": 2885,
      "ivity": 2886,
      "ament": 2887,
      "▁North": 2888,
      "▁inj": 2889,
      "itional": 2890,
      "▁network": 2891,
      "▁door": 2892,
      "nes": 2893,
      "▁weeks": 2894,
      "anced": 2895,
      "▁regard": 2896,
      "▁exec": 2897,
      "ades": 2898,
      "▁hands": 2899,
      "ny": 2900,
      "▁rad": 2901,
      "inary": 2902,
      "▁favor": 2903,
      "inter": 2904,
      "▁match": 2905,
      "▁style": 2906,
      "ama": 2907,
      "oo": 2908,
      "eds": 2909,
      "rror": 2910,
      "This": 2911,
      "▁security": 2912,
      "▁recent": 2913,
      "pm": 2914,
      "light": 2915,
      "umber": 2916,
      "OS": 2917,
      "▁couple": 2918,
      "▁writing": 2919,
      "▁pred": 2920,
      "uary": 2921,
      "▁error": 2922,
      "▁Sept": 2923,
      "▁June": 2924,
      "inks": 2925,
      "▁cases": 2926,
      "mp": 2927,
      "http": 2928,
      "▁bott": 2929,
      "▁contrib": 2930,
      "▁financial": 2931,
      "▁Dav": 2932,
      "▁areas": 2933,
      "▁Act": 2934,
      "▁paper": 2935,
      "▁phone": 2936,
      "▁wrong": 2937,
      "▁deep": 2938,
      "▁etc": 2939,
      "html": 2940,
      "▁recogn": 2941,
      "▁safe": 2942,
      "fort": 2943,
      "astic": 2944,
      "▁subject": 2945,
      "▁popular": 2946,
      "▁Bo": 2947,
      "▁management": 2948,
      "rm": 2949,
      "▁cook": 2950,
      "yl": 2951,
      "roups": 2952,
      "$.": 2953,
      "amed": 2954,
      "▁с": 2955,
      "AD": 2956,
      "ica": 2957,
      "▁date": 2958,
      "▁sort": 2959,
      "▁System": 2960,
      "▁cover": 2961,
      "▁desc": 2962,
      "roid": 2963,
      "▁fast": 2964,
      "▁application": 2965,
      "unk": 2966,
      "▁ep": 2967,
      "▁lost": 2968,
      "unt": 2969,
      "▁box": 2970,
      "▁speak": 2971,
      "▁der": 2972,
      "▁expected": 2973,
      "▁lower": 2974,
      "▁mention": 2975,
      "ample": 2976,
      "obile": 2977,
      "▁*/": 2978,
      "iction": 2979,
      "atest": 2980,
      "where": 2981,
      "▁First": 2982,
      "▁Ser": 2983,
      "▁itself": 2984,
      "▁weight": 2985,
      "▁gra": 2986,
      "▁April": 2987,
      "ION": 2988,
      "▁document": 2989,
      "▁?": 2990,
      "▁War": 2991,
      "▁message": 2992,
      "▁autom": 2993,
      "ming": 2994,
      "ha": 2995,
      "');": 2996,
      "▁platform": 2997,
      "icated": 2998,
      "▁sett": 2999,
      "++": 3000,
      "uration": 3001,
      "pose": 3002,
      "arter": 3003,
      "▁users": 3004,
      "▁fight": 3005,
      "':": 3006,
      "▁turned": 3007,
      "▁cause": 3008,
      "▁mother": 3009,
      "▁swe": 3010,
      "▁via": 3011,
      "Col": 3012,
      "▁Val": 3013,
      "▁write": 3014,
      "ety": 3015,
      "▁article": 3016,
      "▁software": 3017,
      "▁heav": 3018,
      "ological": 3019,
      "nection": 3020,
      "▁office": 3021,
      "▁engine": 3022,
      "▁ill": 3023,
      "▁Feb": 3024,
      "▁President": 3025,
      "hel": 3026,
      "ese": 3027,
      "▁systems": 3028,
      "▁themselves": 3029,
      "serv": 3030,
      "ij": 3031,
      "▁estab": 3032,
      "▁answer": 3033,
      "haps": 3034,
      "▁woman": 3035,
      "ро": 3036,
      "▁pers": 3037,
      "▁upon": 3038,
      "sum": 3039,
      "Ob": 3040,
      "▁terms": 3041,
      "▁official": 3042,
      "▁sens": 3043,
      "$,": 3044,
      "▁customers": 3045,
      "▁Stud": 3046,
      "▁School": 3047,
      "▁July": 3048,
      "▁assist": 3049,
      "▁quickly": 3050,
      "▁affect": 3051,
      "▁late": 3052,
      "mat": 3053,
      "oring": 3054,
      "▁pan": 3055,
      "▁regular": 3056,
      "pha": 3057,
      "▁growth": 3058,
      "▁himself": 3059,
      "▁playing": 3060,
      "▁Post": 3061,
      "▁introdu": 3062,
      "minist": 3063,
      "▁hop": 3064,
      "▁Mon": 3065,
      "▁err": 3066,
      "▁!=": 3067,
      "▁provides": 3068,
      "lier": 3069,
      "vis": 3070,
      "ressed": 3071,
      "▁Why": 3072,
      "▁unique": 3073,
      "▁CO": 3074,
      "based": 3075,
      "no": 3076,
      "▁morning": 3077,
      "▁max": 3078,
      "▁Cons": 3079,
      "▁https": 3080,
      "uments": 3081,
      "▁Char": 3082,
      "▁global": 3083,
      "▁staff": 3084,
      "▁learning": 3085,
      "imum": 3086,
      "earch": 3087,
      "▁began": 3088,
      "▁America": 3089,
      "▁song": 3090,
      "▁cam": 3091,
      "idge": 3092,
      "▁&&": 3093,
      "US": 3094,
      "icles": 3095,
      "UR": 3096,
      "▁approach": 3097,
      "▁Us": 3098,
      "▁remember": 3099,
      "ocr": 3100,
      "wise": 3101,
      "▁wide": 3102,
      "dom": 3103,
      "▁Art": 3104,
      "▁sex": 3105,
      "▁ready": 3106,
      "▁lives": 3107,
      "▁String": 3108,
      "▁mach": 3109,
      "▁display": 3110,
      "▁implement": 3111,
      "▁natural": 3112,
      "▁reading": 3113,
      "▁deg": 3114,
      "▁den": 3115,
      "▁Also": 3116,
      "▁gave": 3117,
      "▁ball": 3118,
      "ening": 3119,
      "▁imm": 3120,
      "▁Even": 3121,
      "gl": 3122,
      "▁Sw": 3123,
      "▁nice": 3124,
      "board": 3125,
      "▁slow": 3126,
      "▁dark": 3127,
      "pre": 3128,
      "ales": 3129,
      "iful": 3130,
      "▁config": 3131,
      "attle": 3132,
      "UT": 3133,
      "></": 3134,
      "top": 3135,
      "▁town": 3136,
      "▁round": 3137,
      "▁draw": 3138,
      "▁decision": 3139,
      "▁former": 3140,
      "▁heard": 3141,
      "▁load": 3142,
      "));": 3143,
      "▁saying": 3144,
      "▁Every": 3145,
      "▁IN": 3146,
      ",\\": 3147,
      "▁avoid": 3148,
      "uk": 3149,
      "▁offers": 3150,
      "▁chance": 3151,
      "▁Sim": 3152,
      "▁attempt": 3153,
      "▁currently": 3154,
      "oe": 3155,
      "bre": 3156,
      "aign": 3157,
      "▁contract": 3158,
      "▁ones": 3159,
      "▁tried": 3160,
      "▁http": 3161,
      "▁goal": 3162,
      "▁West": 3163,
      "▁worked": 3164,
      "\";": 3165,
      "ils": 3166,
      "▁opportunity": 3167,
      "pi": 3168,
      "hold": 3169,
      "▁goes": 3170,
      "▁title": 3171,
      "but": 3172,
      "anger": 3173,
      "ham": 3174,
      "▁knowledge": 3175,
      "▁prep": 3176,
      "▁kids": 3177,
      "▁Red": 3178,
      "▁looks": 3179,
      "▁recently": 3180,
      "▁national": 3181,
      "ett": 3182,
      "().": 3183,
      "▁choose": 3184,
      "ovember": 3185,
      "▁received": 3186,
      "▁hor": 3187,
      "apter": 3188,
      "▁inn": 3189,
      "▁August": 3190,
      "▁circ": 3191,
      "anch": 3192,
      "print": 3193,
      "▁provided": 3194,
      "▁party": 3195,
      "▁surpr": 3196,
      "▁sus": 3197,
      "▁hear": 3198,
      "▁Gener": 3199,
      "Mod": 3200,
      "aves": 3201,
      "▁Day": 3202,
      "uel": 3203,
      "▁Friday": 3204,
      "▁throw": 3205,
      "asons": 3206,
      "▁High": 3207,
      "▁cy": 3208,
      "▁brand": 3209,
      "▁Park": 3210,
      "▁distrib": 3211,
      "▁Health": 3212,
      "Value": 3213,
      "hood": 3214,
      "▁stra": 3215,
      "▁wall": 3216,
      "orks": 3217,
      "▁education": 3218,
      "▁release": 3219,
      "item": 3220,
      "But": 3221,
      "bf": 3222,
      "▁leaders": 3223,
      "rs": 3224,
      "▁January": 3225,
      "rought": 3226,
      "▁ability": 3227,
      "▁drive": 3228,
      "OD": 3229,
      "▁Most": 3230,
      "ken": 3231,
      "▁screen": 3232,
      "▁September": 3233,
      "▁stri": 3234,
      "▁production": 3235,
      "▁situation": 3236,
      "const": 3237,
      "▁integr": 3238,
      "emic": 3239,
      "▁became": 3240,
      "▁investig": 3241,
      "▁Brit": 3242,
      "lim": 3243,
      "▁October": 3244,
      "▁driv": 3245,
      "▁Mich": 3246,
      "▁positive": 3247,
      "▁levels": 3248,
      "▁comment": 3249,
      "▁separ": 3250,
      "▁member": 3251,
      "▁Ac": 3252,
      "▁Up": 3253,
      "▁prior": 3254,
      "▁thinking": 3255,
      "▁serious": 3256,
      "▁political": 3257,
      "do": 3258,
      "And": 3259,
      "▁language": 3260,
      "▁throughout": 3261,
      "▁veh": 3262,
      "▁includes": 3263,
      "url": 3264,
      "▁mix": 3265,
      "▁collect": 3266,
      "uses": 3267,
      "irit": 3268,
      "ado": 3269,
      "ournal": 3270,
      "▁rout": 3271,
      "▁built": 3272,
      "include": 3273,
      "▁immedi": 3274,
      "▁wonder": 3275,
      "▁decided": 3276,
      "bor": 3277,
      "ences": 3278,
      "reng": 3279,
      "met": 3280,
      "];": 3281,
      "odes": 3282,
      "▁father": 3283,
      "▁police": 3284,
      "uted": 3285,
      "▁accom": 3286,
      "▁correct": 3287,
      "▁viol": 3288,
      "▁mag": 3289,
      "▁values": 3290,
      "▁treatment": 3291,
      "airs": 3292,
      "elebr": 3293,
      "▁dat": 3294,
      "▁prevent": 3295,
      "▁behav": 3296,
      "▁gets": 3297,
      "lin": 3298,
      "▁decl": 3299,
      "cember": 3300,
      "▁sil": 3301,
      "▁practice": 3302,
      "▁Sund": 3303,
      "▁La": 3304,
      "md": 3305,
      "net": 3306,
      "▁cross": 3307,
      "▁bi": 3308,
      "▁Are": 3309,
      "bol": 3310,
      "illing": 3311,
      "▁multiple": 3312,
      "▁happy": 3313,
      "▁dead": 3314,
      "▁Bro": 3315,
      "▁Pat": 3316,
      "▁sche": 3317,
      "▁types": 3318,
      "▁Sch": 3319,
      "▁solution": 3320,
      "▁easily": 3321,
      "state": 3322,
      "▁Soc": 3323,
      "verse": 3324,
      "▁dise": 3325,
      "▁policy": 3326,
      "▁board": 3327,
      "lying": 3328,
      "▁bal": 3329,
      "▁email": 3330,
      "ero": 3331,
      "▁attention": 3332,
      "username": 3333,
      "hib": 3334,
      "ashing": 3335,
      "▁reported": 3336,
      "▁details": 3337,
      "point": 3338,
      "▁Germ": 3339,
      "View": 3340,
      "rences": 3341,
      "▁squ": 3342,
      "▁player": 3343,
      "iles": 3344,
      "▁default": 3345,
      "▁court": 3346,
      "▁div": 3347,
      "▁patients": 3348,
      "▁House": 3349,
      "▁additional": 3350,
      "▁stru": 3351,
      "▁dru": 3352,
      "▁choice": 3353,
      "▁November": 3354,
      "config": 3355,
      "▁ple": 3356,
      "zz": 3357,
      "Se": 3358,
      "pite": 3359,
      "▁->": 3360,
      "itely": 3361,
      "sequ": 3362,
      "▁Austral": 3363,
      "го": 3364,
      "Get": 3365,
      "▁medical": 3366,
      "▁bank": 3367,
      "ened": 3368,
      "▁County": 3369,
      "▁appe": 3370,
      "atives": 3371,
      "▁dro": 3372,
      "py": 3373,
      "idered": 3374,
      "olute": 3375,
      "▁completely": 3376,
      "';": 3377,
      "▁conditions": 3378,
      "acing": 3379,
      "bed": 3380,
      "iam": 3381,
      "▁propos": 3382,
      "▁Black": 3383,
      "▁couldn": 3384,
      "acc": 3385,
      "just": 3386,
      "bt": 3387,
      "▁parents": 3388,
      "Un": 3389,
      "atory": 3390,
      "gen": 3391,
      "▁Tra": 3392,
      "▁standard": 3393,
      "▁ensure": 3394,
      "▁commit": 3395,
      "dis": 3396,
      "▁vict": 3397,
      "aste": 3398,
      "▁huge": 3399,
      "▁challeng": 3400,
      "cite": 3401,
      "▁countries": 3402,
      "▁involved": 3403,
      "▁que": 3404,
      "▁Mus": 3405,
      "As": 3406,
      "comment": 3407,
      "gar": 3408,
      "▁items": 3409,
      "aught": 3410,
      "▁obtain": 3411,
      "▁groups": 3412,
      "▁inf": 3413,
      "▁names": 3414,
      "▁Since": 3415,
      "▁boy": 3416,
      "▁towards": 3417,
      "▁books": 3418,
      "ibly": 3419,
      "▁grad": 3420,
      "▁related": 3421,
      "Error": 3422,
      "▁pric": 3423,
      "eed": 3424,
      "▁written": 3425,
      "orage": 3426,
      "▁save": 3427,
      "Sh": 3428,
      "icate": 3429,
      "ING": 3430,
      "▁son": 3431,
      "▁fit": 3432,
      "▁Pre": 3433,
      "urt": 3434,
      "gram": 3435,
      "▁sales": 3436,
      "▁Well": 3437,
      "comes": 3438,
      "▁fine": 3439,
      "aches": 3440,
      "▁Afric": 3441,
      "▁normal": 3442,
      "▁China": 3443,
      "▁TH": 3444,
      "▁maybe": 3445,
      "▁played": 3446,
      "▁states": 3447,
      "mas": 3448,
      "▁bed": 3449,
      "▁meeting": 3450,
      "▁Read": 3451,
      "itary": 3452,
      "▁hy": 3453,
      "▁cool": 3454,
      "▁Ret": 3455,
      "▁necessary": 3456,
      "▁fair": 3457,
      "▁emer": 3458,
      "▁},": 3459,
      "▁included": 3460,
      "▁professional": 3461,
      "la": 3462,
      "▁center": 3463,
      "▁considered": 3464,
      "▁stuff": 3465,
      "▁interesting": 3466,
      "▁cry": 3467,
      "oph": 3468,
      "▁gives": 3469,
      "▁complex": 3470,
      "place": 3471,
      "▁sell": 3472,
      "indows": 3473,
      "ospital": 3474,
      "ederal": 3475,
      "▁News": 3476,
      "▁December": 3477,
      "\"\"": 3478,
      "▁Mond": 3479,
      "ufact": 3480,
      "mar": 3481,
      "enty": 3482,
      "▁allows": 3483,
      "cul": 3484,
      "▁mark": 3485,
      "▁analysis": 3486,
      "▁jud": 3487,
      "▁о": 3488,
      "index": 3489,
      "rie": 3490,
      "▁href": 3491,
      "▁suff": 3492,
      "▁led": 3493,
      "change": 3494,
      "▁Any": 3495,
      "▁career": 3496,
      "▁Satur": 3497,
      "='": 3498,
      "inst": 3499,
      "pack": 3500,
      "▁compon": 3501,
      "more": 3502,
      "hern": 3503,
      "▁…": 3504,
      "oper": 3505,
      "cil": 3506,
      "}.": 3507,
      "ester": 3508,
      "▁Off": 3509,
      "▁Net": 3510,
      "ugin": 3511,
      "▁background": 3512,
      "▁average": 3513,
      "▁reve": 3514,
      "▁India": 3515,
      "▁cand": 3516,
      "aker": 3517,
      "▁starting": 3518,
      "itter": 3519,
      "▁lif": 3520,
      "pri": 3521,
      "▁voice": 3522,
      "▁Mod": 3523,
      "▁и": 3524,
      "▁exactly": 3525,
      "▁input": 3526,
      "▁describ": 3527,
      "annel": 3528,
      "ocks": 3529,
      "agement": 3530,
      "ocol": 3531,
      "azing": 3532,
      "▁Sunday": 3533,
      "File": 3534,
      "▁trust": 3535,
      "oken": 3536,
      "▁Over": 3537,
      "▁please": 3538,
      "sl": 3539,
      "▁finally": 3540,
      "If": 3541,
      "▁latest": 3542,
      "cho": 3543,
      "IM": 3544,
      "▁insurance": 3545,
      "▁influ": 3546,
      "▁Wed": 3547,
      "des": 3548,
      "../": 3549,
      "ho": 3550,
      "▁command": 3551,
      "▁Russ": 3552,
      "▁sold": 3553,
      "andom": 3554,
      "EM": 3555,
      "Exception": 3556,
      "▁UK": 3557,
      "▁sometimes": 3558,
      "▁Cour": 3559,
      "▁designed": 3560,
      "▁dire": 3561,
      "▁section": 3562,
      "start": 3563,
      "▁campaign": 3564,
      "▁Center": 3565,
      "▁Other": 3566,
      "iqu": 3567,
      "▁param": 3568,
      "▁fa": 3569,
      "▁saf": 3570,
      "igned": 3571,
      "▁Trans": 3572,
      "▁beautiful": 3573,
      "map": 3574,
      "▁credit": 3575,
      "aries": 3576,
      "irth": 3577,
      "▁brought": 3578,
      "▁streng": 3579,
      "By": 3580,
      "▁plans": 3581,
      "▁sleep": 3582,
      "▁summer": 3583,
      "plate": 3584,
      "▁mid": 3585,
      "men": 3586,
      "▁Saturday": 3587,
      "▁Out": 3588,
      "mb": 3589,
      "▁marketing": 3590,
      "▁sun": 3591,
      "ceed": 3592,
      "▁lack": 3593,
      "▁ang": 3594,
      "▁earn": 3595,
      "▁die": 3596,
      "chan": 3597,
      "iding": 3598,
      "▁cat": 3599,
      "▁King": 3600,
      "▁consist": 3601,
      "ruary": 3602,
      "▁feature": 3603,
      "▁international": 3604,
      "▁Many": 3605,
      "with": 3606,
      "bit": 3607,
      "PI": 3608,
      "▁maintain": 3609,
      "sk": 3610,
      "eters": 3611,
      "▁tour": 3612,
      "▁Monday": 3613,
      "▁giving": 3614,
      "▁ten": 3615,
      "▁fell": 3616,
      "▁TV": 3617,
      "▁contain": 3618,
      "CT": 3619,
      "▁Ke": 3620,
      "yond": 3621,
      "▁certainly": 3622,
      "iment": 3623,
      "▁effic": 3624,
      "”.": 3625,
      "rite": 3626,
      "▁parts": 3627,
      "▁touch": 3628,
      "▁tal": 3629,
      "▁digital": 3630,
      "ondon": 3631,
      "▁arch": 3632,
      "cher": 3633,
      "▁celebr": 3634,
      "ounds": 3635,
      "▁gold": 3636,
      "▁capt": 3637,
      "\\\\": 3638,
      "▁physical": 3639,
      "sec": 3640,
      "Object": 3641,
      "▁context": 3642,
      "▁Thanks": 3643,
      "▁flow": 3644,
      "apan": 3645,
      "▁update": 3646,
      "▁speed": 3647,
      "▁plant": 3648,
      "ael": 3649,
      "▁bud": 3650,
      "▁mis": 3651,
      "doc": 3652,
      "▁effective": 3653,
      "▁extreme": 3654,
      "▁Sk": 3655,
      "._": 3656,
      "▁clos": 3657,
      "▁upd": 3658,
      "▁imag": 3659,
      "▁files": 3660,
      "ald": 3661,
      "What": 3662,
      "▁English": 3663,
      "oom": 3664,
      "▁activities": 3665,
      "Im": 3666,
      "▁difference": 3667,
      "alpha": 3668,
      "ре": 3669,
      "oul": 3670,
      "▁projects": 3671,
      "▁effects": 3672,
      "▁costs": 3673,
      "ores": 3674,
      "aby": 3675,
      "▁Dem": 3676,
      "enge": 3677,
      "▁resources": 3678,
      "▁happened": 3679,
      "RO": 3680,
      "▁rev": 3681,
      "▁device": 3682,
      "▁mess": 3683,
      "▁skills": 3684,
      "▁feeling": 3685,
      "CH": 3686,
      "iring": 3687,
      "▁computer": 3688,
      "lib": 3689,
      "▁directly": 3690,
      "arily": 3691,
      "▁released": 3692,
      "▁recommend": 3693,
      "ategy": 3694,
      "▁feed": 3695,
      "ayer": 3696,
      "ares": 3697,
      "build": 3698,
      "▁hol": 3699,
      "nown": 3700,
      "zy": 3701,
      "SS": 3702,
      "▁liter": 3703,
      "No": 3704,
      "▁receive": 3705,
      "▁Direct": 3706,
      "▁Sen": 3707,
      "ва": 3708,
      "▁San": 3709,
      "▁benefits": 3710,
      "iber": 3711,
      "▁Je": 3712,
      "itation": 3713,
      "▁leading": 3714,
      "mission": 3715,
      "▁David": 3716,
      "aling": 3717,
      "oes": 3718,
      "▁fresh": 3719,
      "▁reach": 3720,
      "▁aware": 3721,
      "En": 3722,
      "▁sec": 3723,
      "AG": 3724,
      "▁encour": 3725,
      "Text": 3726,
      "gu": 3727,
      "▁location": 3728,
      "▁student": 3729,
      "equation": 3730,
      "▁array": 3731,
      "▁mer": 3732,
      "see": 3733,
      "Set": 3734,
      "vey": 3735,
      "▁Rem": 3736,
      "mary": 3737,
      "▁green": 3738,
      "▁legal": 3739,
      "oat": 3740,
      "▁send": 3741,
      "▁Cr": 3742,
      "IL": 3743,
      "chen": 3744,
      "▁org": 3745,
      "atever": 3746,
      "▁threat": 3747,
      "▁Jes": 3748,
      "ests": 3749,
      "Ph": 3750,
      "▁February": 3751,
      "▁:=": 3752,
      "}(": 3753,
      "▁▁▁▁▁▁▁▁▁": 3754,
      "▁comfort": 3755,
      "Pl": 3756,
      "▁bur": 3757,
      "ULL": 3758,
      "group": 3759,
      "ecause": 3760,
      "icon": 3761,
      "▁fat": 3762,
      "▁president": 3763,
      "▁park": 3764,
      "▁subst": 3765,
      "ube": 3766,
      "▁frequ": 3767,
      "▁enter": 3768,
      "▁eat": 3769,
      "band": 3770,
      "?\"": 3771,
      "▁changed": 3772,
      "BC": 3773,
      "leg": 3774,
      "▁double": 3775,
      "▁demand": 3776,
      "▁insp": 3777,
      "▁teac": 3778,
      "▁concept": 3779,
      "▁modern": 3780,
      "ida": 3781,
      "▁moving": 3782,
      "comp": 3783,
      "▁economic": 3784,
      "▁ideas": 3785,
      "▁uses": 3786,
      "▁force": 3787,
      "aled": 3788,
      "▁instance": 3789,
      "▁vot": 3790,
      "ications": 3791,
      "▁tools": 3792,
      "▁condition": 3793,
      "▁wouldn": 3794,
      "efore": 3795,
      "▁ri": 3796,
      "icks": 3797,
      "itution": 3798,
      "▁individuals": 3799,
      "cd": 3800,
      "▁Paul": 3801,
      "ishing": 3802,
      "cover": 3803,
      "▁region": 3804,
      "▁alone": 3805,
      "▁Google": 3806,
      "▁nature": 3807,
      "▁Once": 3808,
      "▁ter": 3809,
      "sych": 3810,
      "width": 3811,
      "▁talking": 3812,
      "▁altern": 3813,
      "▁safety": 3814,
      "alt": 3815,
      "▁According": 3816,
      "▁straight": 3817,
      "UN": 3818,
      "▁programs": 3819,
      "▁anim": 3820,
      "oly": 3821,
      "▁spot": 3822,
      "▁interview": 3823,
      "▁Tues": 3824,
      "▁Ang": 3825,
      "ivil": 3826,
      "king": 3827,
      "inner": 3828,
      "▁map": 3829,
      "▁numbers": 3830,
      "▁observ": 3831,
      "ync": 3832,
      "antly": 3833,
      "▁earlier": 3834,
      "(),": 3835,
      "ocation": 3836,
      "▁note": 3837,
      "▁occur": 3838,
      "elta": 3839,
      "▁vers": 3840,
      "For": 3841,
      "erve": 3842,
      "▁Thurs": 3843,
      "bum": 3844,
      "▁@@": 3845,
      "itude": 3846,
      "section": 3847,
      "▁evidence": 3848,
      "▁feet": 3849,
      "▁prec": 3850,
      "▁piece": 3851,
      "▁rights": 3852,
      "▁hour": 3853,
      "isf": 3854,
      "▁neigh": 3855,
      "▁client": 3856,
      "▁London": 3857,
      "iled": 3858,
      "▁skin": 3859,
      "▁broad": 3860,
      "mathcal": 3861,
      "lev": 3862,
      "encies": 3863,
      "idents": 3864,
      "▁manufact": 3865,
      "▁stream": 3866,
      "ipe": 3867,
      "▁hair": 3868,
      "tes": 3869,
      "istry": 3870,
      "IG": 3871,
      "▁Commun": 3872,
      "▁status": 3873,
      "▁ge": 3874,
      "Time": 3875,
      "▁carry": 3876,
      "▁server": 3877,
      "imately": 3878,
      "ambda": 3879,
      "▁Department": 3880,
      "array": 3881,
      "▁initial": 3882,
      "▁package": 3883,
      "SE": 3884,
      "pace": 3885,
      "IP": 3886,
      "▁stage": 3887,
      "▁qual": 3888,
      "rix": 3889,
      "soft": 3890,
      "▁helps": 3891,
      "resp": 3892,
      "▁click": 3893,
      "▁respond": 3894,
      "▁shown": 3895,
      "▁fear": 3896,
      "Par": 3897,
      "▁spent": 3898,
      "▁gone": 3899,
      "▁output": 3900,
      "script": 3901,
      "▁beginning": 3902,
      "▁acqu": 3903,
      "vest": 3904,
      "▁band": 3905,
      "het": 3906,
      "▁variety": 3907,
      "▁Coun": 3908,
      "▁definitely": 3909,
      "▁See": 3910,
      "abase": 3911,
      ">\r": 3912,
      "▁allowed": 3913,
      "▁arriv": 3914,
      "▁Tuesday": 3915,
      "rote": 3916,
      "▁customer": 3917,
      "])": 3918,
      "▁Japan": 3919,
      "▁nearly": 3920,
      "▁daily": 3921,
      "▁star": 3922,
      "ico": 3923,
      "▁wel": 3924,
      "ults": 3925,
      "▁virt": 3926,
      "aint": 3927,
      "▁shot": 3928,
      "arr": 3929,
      "▁advant": 3930,
      "▁II": 3931,
      "}\r": 3932,
      "▁gas": 3933,
      "▁Thursday": 3934,
      "▁wants": 3935,
      "▁places": 3936,
      "▁moved": 3937,
      "▁activity": 3938,
      "▁lines": 3939,
      "\\_": 3940,
      "App": 3941,
      "input": 3942,
      "}^": 3943,
      "▁catch": 3944,
      "undred": 3945,
      "ara": 3946,
      "▁International": 3947,
      "omen": 3948,
      "▁absolute": 3949,
      "▁Mor": 3950,
      "▁administ": 3951,
      "Int": 3952,
      "thon": 3953,
      "nesday": 3954,
      "Key": 3955,
      "utive": 3956,
      "EO": 3957,
      ")\\": 3958,
      "());": 3959,
      "Add": 3960,
      "▁Jack": 3961,
      "▁breat": 3962,
      "using": 3963,
      "▁emot": 3964,
      "▁middle": 3965,
      "▁progress": 3966,
      "▁detail": 3967,
      "▁length": 3968,
      "▁structure": 3969,
      "▁mount": 3970,
      "ford": 3971,
      "Ind": 3972,
      "▁associated": 3973,
      "AME": 3974,
      "▁Ir": 3975,
      "▁demon": 3976,
      "▁creating": 3977,
      "▁movie": 3978,
      "▁pressure": 3979,
      "State": 3980,
      "asc": 3981,
      "▁Although": 3982,
      "aughter": 3983,
      "▁rules": 3984,
      "lock": 3985,
      "▁aim": 3986,
      "▁developed": 3987,
      ".’": 3988,
      "▁growing": 3989,
      "▁club": 3990,
      "/**": 3991,
      "hand": 3992,
      "post": 3993,
      "public": 3994,
      "Requ": 3995,
      "то": 3996,
      "▁surv": 3997,
      "▁teams": 3998,
      "ternal": 3999,
      "ategory": 4000,
      "=\\": 4001,
      "▁copy": 4002,
      "▁histor": 4003,
      "▁methods": 4004,
      "****************": 4005,
      "▁achieve": 4006,
      "▁Good": 4007,
      "host": 4008,
      "▁favorite": 4009,
      "▁dream": 4010,
      "▁aren": 4011,
      "▁race": 4012,
      "▁stock": 4013,
      "▁organization": 4014,
      "▁paid": 4015,
      "▁eight": 4016,
      "▁Law": 4017,
      "function": 4018,
      "▁temper": 4019,
      "▁Associ": 4020,
      "▁firm": 4021,
      "▁announced": 4022,
      "▁exerc": 4023,
      "pport": 4024,
      "▁Tod": 4025,
      "perty": 4026,
      "▁independ": 4027,
      "rief": 4028,
      "inn": 4029,
      "AB": 4030,
      "ously": 4031,
      "▁List": 4032,
      "On": 4033,
      "▁wat": 4034,
      "▁relig": 4035,
      "▁Wednesday": 4036,
      "▁window": 4037,
      "▁although": 4038,
      "▁push": 4039,
      "ри": 4040,
      "▁increased": 4041,
      "ework": 4042,
      "iny": 4043,
      "ynam": 4044,
      "▁д": 4045,
      "▁sto": 4046,
      "ilies": 4047,
      "▁increasing": 4048,
      "▁spend": 4049,
      "▁billion": 4050,
      "▁statement": 4051,
      "link": 4052,
      "▁nation": 4053,
      "▁models": 4054,
      "oms": 4055,
      "▁Calif": 4056,
      "▁successful": 4057,
      "▁valid": 4058,
      "inated": 4059,
      "▁strugg": 4060,
      "▁excell": 4061,
      "roller": 4062,
      "▁published": 4063,
      "orge": 4064,
      "ban": 4065,
      "▁amazing": 4066,
      "Path": 4067,
      "▁understanding": 4068,
      "▁Great": 4069,
      "aly": 4070,
      "▁meaning": 4071,
      "▁Air": 4072,
      "▁capital": 4073,
      "▁stories": 4074,
      "▁pattern": 4075,
      "ios": 4076,
      "estion": 4077,
      "▁assert": 4078,
      "▁{\r": 4079,
      "bur": 4080,
      "▁index": 4081,
      "isions": 4082,
      "▁stat": 4083,
      "ancy": 4084,
      "▁particularly": 4085,
      "reci": 4086,
      "▁highly": 4087,
      "▁culture": 4088,
      "rupt": 4089,
      "CC": 4090,
      "sm": 4091,
      "char": 4092,
      "acity": 4093,
      ".\r": 4094,
      "▁Fe": 4095,
      "▁dog": 4096,
      "DE": 4097,
      "▁roll": 4098,
      "Test": 4099,
      "▁measure": 4100,
      "▁du": 4101,
      "▁wish": 4102,
      "rows": 4103,
      "▁fully": 4104,
      "▁wood": 4105,
      "▁whose": 4106,
      "▁warm": 4107,
      "▁active": 4108,
      "run": 4109,
      "▁relative": 4110,
      "LO": 4111,
      "▁thous": 4112,
      "▁Sub": 4113,
      "table": 4114,
      "inate": 4115,
      "▁er": 4116,
      "trans": 4117,
      "▁download": 4118,
      "▁beyond": 4119,
      "▁limited": 4120,
      "▁item": 4121,
      "wood": 4122,
      "▁Def": 4123,
      "rang": 4124,
      "▁/*": 4125,
      "mm": 4126,
      "ius": 4127,
      "itute": 4128,
      "▁inform": 4129,
      "Man": 4130,
      "▁element": 4131,
      "tee": 4132,
      "▁conduct": 4133,
      "AA": 4134,
      "▁steps": 4135,
      "!”": 4136,
      "▁investment": 4137,
      "▁trade": 4138,
      "abled": 4139,
      "itable": 4140,
      "rench": 4141,
      "count": 4142,
      "▁followed": 4143,
      "lied": 4144,
      "▁depend": 4145,
      "▁disease": 4146,
      "▁heat": 4147,
      "▁guess": 4148,
      "▁toward": 4149,
      "▁Class": 4150,
      "▁obvious": 4151,
      "▁util": 4152,
      "▁drink": 4153,
      "▁Because": 4154,
      "▁regul": 4155,
      "▁Inter": 4156,
      "color": 4157,
      "▁Trump": 4158,
      "▁actual": 4159,
      "▁shoot": 4160,
      "▁wife": 4161,
      "force": 4162,
      "istics": 4163,
      "▁collection": 4164,
      "▁Jesus": 4165,
      "▁passed": 4166,
      "▁floor": 4167,
      "▁lik": 4168,
      "▁Open": 4169,
      "ен": 4170,
      "▁perhaps": 4171,
      "df": 4172,
      "rep": 4173,
      "▁Ben": 4174,
      "та": 4175,
      "▁ce": 4176,
      "____": 4177,
      "▁impl": 4178,
      "▁interested": 4179,
      "ornia": 4180,
      "▁Dan": 4181,
      "▁truth": 4182,
      "ooth": 4183,
      "PS": 4184,
      "▁immediately": 4185,
      "wide": 4186,
      "▁purpose": 4187,
      "▁seemed": 4188,
      "▁bottom": 4189,
      "▁apply": 4190,
      "▁employees": 4191,
      "▁eye": 4192,
      "▁college": 4193,
      "▁damage": 4194,
      "▁sy": 4195,
      "▁eval": 4196,
      "ribute": 4197,
      "▁businesses": 4198,
      "php": 4199,
      "▁cold": 4200,
      "▁grand": 4201,
      "▁Port": 4202,
      "▁setting": 4203,
      "▁compared": 4204,
      "agon": 4205,
      "content": 4206,
      "IR": 4207,
      "▁remain": 4208,
      "▁figure": 4209,
      "term": 4210,
      "▁hous": 4211,
      "▁convers": 4212,
      "▁Face": 4213,
      "▁opin": 4214,
      "ipment": 4215,
      "izes": 4216,
      "▁ahead": 4217,
      "An": 4218,
      "▁Yes": 4219,
      "iant": 4220,
      "▁basic": 4221,
      "▁Work": 4222,
      "▁ded": 4223,
      "lete": 4224,
      "▁Group": 4225,
      "▁sites": 4226,
      "img": 4227,
      "za": 4228,
      "())": 4229,
      "▁reduce": 4230,
      "All": 4231,
      ");\r": 4232,
      "▁smart": 4233,
      "Not": 4234,
      "▁wrote": 4235,
      "ros": 4236,
      "▁reasons": 4237,
      "api": 4238,
      "▁spread": 4239,
      "▁Best": 4240,
      "▁Mac": 4241,
      "Or": 4242,
      "Qu": 4243,
      "Config": 4244,
      "▁overall": 4245,
      "call": 4246,
      "▁partners": 4247,
      "▁Book": 4248,
      "▁limit": 4249,
      "ography": 4250,
      "▁healthy": 4251,
      "db": 4252,
      "▁hundred": 4253,
      "icip": 4254,
      "ibr": 4255,
      "▁Like": 4256,
      "▁IS": 4257,
      "▁prem": 4258,
      "▁conv": 4259,
      "▁brother": 4260,
      "▁Tom": 4261,
      "▁easier": 4262,
      "ashington": 4263,
      "amma": 4264,
      "▁poor": 4265,
      "iling": 4266,
      "▁Ant": 4267,
      "estern": 4268,
      "▁Som": 4269,
      "ville": 4270,
      "mitted": 4271,
      "▁People": 4272,
      "ли": 4273,
      "dev": 4274,
      "▁elements": 4275,
      "ca": 4276,
      "arrow": 4277,
      "▁memory": 4278,
      "▁kept": 4279,
      "ка": 4280,
      "▁mobile": 4281,
      "plit": 4282,
      "▁task": 4283,
      "▁blue": 4284,
      "▁Street": 4285,
      "▁Christmas": 4286,
      "node": 4287,
      "▁Market": 4288,
      "orrow": 4289,
      "▁sen": 4290,
      "osition": 4291,
      ". ": 4292,
      "▁fem": 4293,
      "length": 4294,
      "▁Indian": 4295,
      "▁East": 4296,
      "▁connection": 4297,
      "ula": 4298,
      "▁picture": 4299,
      "▁useful": 4300,
      "ffee": 4301,
      "▁strateg": 4302,
      "vant": 4303,
      "▁graph": 4304,
      "▁Please": 4305,
      "▁diet": 4306,
      "active": 4307,
      "▁slight": 4308,
      "itiz": 4309,
      "▁doll": 4310,
      "▁ign": 4311,
      "▁lic": 4312,
      "▁arm": 4313,
      "▁apart": 4314,
      "ection": 4315,
      "▁tick": 4316,
      "▁Pal": 4317,
      "[]": 4318,
      "den": 4319,
      "reate": 4320,
      "inger": 4321,
      "▁characters": 4322,
      "}_": 4323,
      "▁libr": 4324,
      "bon": 4325,
      "▁rock": 4326,
      "▁except": 4327,
      "uate": 4328,
      "▁Gold": 4329,
      "▁Oh": 4330,
      "▁studies": 4331,
      "rael": 4332,
      "▁charge": 4333,
      "from": 4334,
      "hest": 4335,
      "▁rates": 4336,
      "▁purchase": 4337,
      "▁trip": 4338,
      "▁cas": 4339,
      "▁Super": 4340,
      "▁Bus": 4341,
      "▁reports": 4342,
      "Al": 4343,
      "▁brain": 4344,
      "▁planning": 4345,
      "ruit": 4346,
      "roy": 4347,
      "▁California": 4348,
      "▁Techn": 4349,
      "azon": 4350,
      "▁Green": 4351,
      "ML": 4352,
      "venue": 4353,
      "▁Another": 4354,
      ")\r": 4355,
      "▁James": 4356,
      "▁strategy": 4357,
      "▁machine": 4358,
      "▁greater": 4359,
      "▁goals": 4360,
      "OL": 4361,
      "▁spirit": 4362,
      "▁quarter": 4363,
      "izations": 4364,
      "▁mechan": 4365,
      "actions": 4366,
      "VID": 4367,
      "▁Bel": 4368,
      "▁ing": 4369,
      "▁kit": 4370,
      "hol": 4371,
      "▁Windows": 4372,
      "Is": 4373,
      "▁haven": 4374,
      "▁satisf": 4375,
      "etic": 4376,
      "pty": 4377,
      "▁continu": 4378,
      "▁scient": 4379,
      "▁Rel": 4380,
      "json": 4381,
      "▁White": 4382,
      "▁traditional": 4383,
      "▁aspect": 4384,
      "▁guy": 4385,
      "mu": 4386,
      "▁meant": 4387,
      "▁ut": 4388,
      "eria": 4389,
      "ancing": 4390,
      "▁///": 4391,
      "▁pen": 4392,
      "▁Inc": 4393,
      "iers": 4394,
      "▁trou": 4395,
      "▁closed": 4396,
      "▁promot": 4397,
      "iced": 4398,
      "▁sem": 4399,
      "icrosoft": 4400,
      "▁Washington": 4401,
      "▁Ev": 4402,
      "▁cash": 4403,
      "▁European": 4404,
      "ocket": 4405,
      "▁Time": 4406,
      "▁gun": 4407,
      "▁providing": 4408,
      "▁Michael": 4409,
      "▁pow": 4410,
      "▁benefit": 4411,
      "▁nut": 4412,
      "pan": 4413,
      "▁Sl": 4414,
      "oin": 4415,
      "oto": 4416,
      "▁Last": 4417,
      "${": 4418,
      "▁military": 4419,
      "▁Del": 4420,
      "▁farm": 4421,
      "idden": 4422,
      "▁clients": 4423,
      "▁cru": 4424,
      "▁fans": 4425,
      "▁seeing": 4426,
      "▁Dist": 4427,
      "▁||": 4428,
      "▁Ear": 4429,
      "▁schools": 4430,
      "ENT": 4431,
      "▁kill": 4432,
      "▁families": 4433,
      "▁income": 4434,
      "▁birth": 4435,
      "arg": 4436,
      "▁lock": 4437,
      "igma": 4438,
      "▁repe": 4439,
      "▁handle": 4440,
      "rive": 4441,
      "mark": 4442,
      "▁population": 4443,
      "▁British": 4444,
      "Form": 4445,
      "▁solid": 4446,
      "ka": 4447,
      "▁images": 4448,
      "▁Develop": 4449,
      "▁located": 4450,
      "▁candid": 4451,
      "▁format": 4452,
      "ae": 4453,
      "▁tim": 4454,
      "▁basis": 4455,
      "▁General": 4456,
      "▁PM": 4457,
      "▁bound": 4458,
      "▁cast": 4459,
      "▁assess": 4460,
      "gn": 4461,
      "aming": 4462,
      "▁stress": 4463,
      "▁refer": 4464,
      "▁demonstr": 4465,
      "▁burn": 4466,
      "That": 4467,
      "▁shall": 4468,
      "▁named": 4469,
      "▁disapp": 4470,
      "▁Republic": 4471,
      "▁Test": 4472,
      "▁powerful": 4473,
      "▁science": 4474,
      "▁society": 4475,
      "eline": 4476,
      "▁train": 4477,
      "▁Sam": 4478,
      "align": 4479,
      "dir": 4480,
      "▁($": 4481,
      "Item": 4482,
      "▁Sy": 4483,
      "▁mentioned": 4484,
      "▁applications": 4485,
      "uman": 4486,
      "▁prices": 4487,
      "▁appropri": 4488,
      "sole": 4489,
      "▁helped": 4490,
      "olf": 4491,
      "irus": 4492,
      "arden": 4493,
      "▁Aut": 4494,
      "emy": 4495,
      "▁continued": 4496,
      "▁existing": 4497,
      "▁Court": 4498,
      "arc": 4499,
      "▁mode": 4500,
      "omb": 4501,
      "▁solutions": 4502,
      "▁whatever": 4503,
      "ups": 4504,
      "▁ult": 4505,
      "▁seven": 4506,
      "ifying": 4507,
      "max": 4508,
      "▁join": 4509,
      "fered": 4510,
      "ech": 4511,
      "▁Set": 4512,
      "ding": 4513,
      "▁supply": 4514,
      "itect": 4515,
      "▁church": 4516,
      "cel": 4517,
      "▁Mat": 4518,
      "▁primary": 4519,
      "((": 4520,
      "▁onto": 4521,
      "▁restaur": 4522,
      "▁wild": 4523,
      "ded": 4524,
      "########": 4525,
      "▁budget": 4526,
      "▁Spec": 4527,
      "▁agree": 4528,
      "▁innov": 4529,
      "▁devices": 4530,
      "▁ir": 4531,
      "▁Cle": 4532,
      "▁reflect": 4533,
      "rad": 4534,
      "▁Make": 4535,
      "▁AN": 4536,
      "▁degree": 4537,
      "▁unit": 4538,
      "▁Check": 4539,
      "▁somew": 4540,
      "▁Cur": 4541,
      "▁truly": 4542,
      "▁excellent": 4543,
      "▁Use": 4544,
      "▁weekend": 4545,
      "▁tree": 4546,
      "▁Sur": 4547,
      "ql": 4548,
      "▁Mark": 4549,
      "check": 4550,
      "▁van": 4551,
      "Class": 4552,
      "anned": 4553,
      "▁surface": 4554,
      "▁Rich": 4555,
      "▁produce": 4556,
      "info": 4557,
      "во": 4558,
      "▁appreci": 4559,
      "▁expand": 4560,
      "▁prefer": 4561,
      "▁mist": 4562,
      "▁Lord": 4563,
      "▁drop": 4564,
      "▁<<": 4565,
      "▁AM": 4566,
      "OP": 4567,
      "▁agre": 4568,
      "▁expert": 4569,
      "▁remove": 4570,
      "▁strength": 4571,
      "▁Rob": 4572,
      "▁Data": 4573,
      "▁album": 4574,
      "▁generally": 4575,
      "▁internet": 4576,
      "isl": 4577,
      "title": 4578,
      "▁transfer": 4579,
      "▁challenge": 4580,
      "▁essential": 4581,
      "▁unf": 4582,
      "EL": 4583,
      "Le": 4584,
      "house": 4585,
      "▁Two": 4586,
      "▁numer": 4587,
      "rial": 4588,
      "case": 4589,
      "▁hus": 4590,
      "ago": 4591,
      "create": 4592,
      "rey": 4593,
      "▁direction": 4594,
      "▁Cong": 4595,
      "▁Bill": 4596,
      "▁Hist": 4597,
      "▁hospital": 4598,
      "entially": 4599,
      "▁Israel": 4600,
      "▁danger": 4601,
      "NAME": 4602,
      "init": 4603,
      "▁College": 4604,
      "▁larger": 4605,
      "▁shared": 4606,
      "▁vs": 4607,
      "base": 4608,
      "▁sequ": 4609,
      "▁ord": 4610,
      "oman": 4611,
      "▁serve": 4612,
      "▁offered": 4613,
      "▁Mart": 4614,
      "▁Sol": 4615,
      "▁opened": 4616,
      "▁Home": 4617,
      "▁loved": 4618,
      "▁cup": 4619,
      "▁workers": 4620,
      "~\\": 4621,
      "▁opportunities": 4622,
      "▁Thank": 4623,
      "▁learned": 4624,
      "miss": 4625,
      "cks": 4626,
      "▁Found": 4627,
      "ride": 4628,
      "▁Tex": 4629,
      "▁electric": 4630,
      "▁tend": 4631,
      "There": 4632,
      "▁lose": 4633,
      "▁comments": 4634,
      "▁requires": 4635,
      "▁multi": 4636,
      "ears": 4637,
      "▁jobs": 4638,
      "▁Hel": 4639,
      "▁Big": 4640,
      "Info": 4641,
      "ramework": 4642,
      "▁letter": 4643,
      "▁Att": 4644,
      "ourney": 4645,
      "ressive": 4646,
      "xy": 4647,
      "iation": 4648,
      "▁dim": 4649,
      "▁happens": 4650,
      "▁guys": 4651,
      "known": 4652,
      "▁Who": 4653,
      "▁glass": 4654,
      "▁notice": 4655,
      "pected": 4656,
      "Request": 4657,
      "▁movement": 4658,
      "▁sust": 4659,
      "asks": 4660,
      "▁functions": 4661,
      "▁Play": 4662,
      "▁Canada": 4663,
      "▁proced": 4664,
      "▁therefore": 4665,
      "▁thank": 4666,
      "inese": 4667,
      "rim": 4668,
      "▁cells": 4669,
      "▁sports": 4670,
      "lor": 4671,
      "▁NULL": 4672,
      "SP": 4673,
      "page": 4674,
      "▁Today": 4675,
      "atically": 4676,
      "▁Cam": 4677,
      "ersion": 4678,
      "▁Facebook": 4679,
      "▁Research": 4680,
      "arant": 4681,
      "duc": 4682,
      "ampions": 4683,
      "▁vehicle": 4684,
      "▁ST": 4685,
      "▁Mal": 4686,
      "can": 4687,
      "================": 4688,
      "ady": 4689,
      "▁calls": 4690,
      "▁cancer": 4691,
      "vere": 4692,
      "▁score": 4693,
      "▁economy": 4694,
      "▁thanks": 4695,
      "▁accur": 4696,
      "▁Council": 4697,
      "▁height": 4698,
      "▁CB": 4699,
      "-\\": 4700,
      "▁deliver": 4701,
      "▁Web": 4702,
      "▁died": 4703,
      "_\\": 4704,
      "tered": 4705,
      "▁quant": 4706,
      "ato": 4707,
      "▁factors": 4708,
      "▁Rober": 4709,
      "▁During": 4710,
      "▁knows": 4711,
      "▁director": 4712,
      "▁critical": 4713,
      "][": 4714,
      "▁Public": 4715,
      "▁construction": 4716,
      "▁secret": 4717,
      "▁Prof": 4718,
      "▁enh": 4719,
      "▁pet": 4720,
      "▁transl": 4721,
      "ustr": 4722,
      "▁finished": 4723,
      "▁thus": 4724,
      "ronic": 4725,
      "▁lab": 4726,
      "▁Look": 4727,
      "▁scen": 4728,
      "▁на": 4729,
      "pat": 4730,
      "▁gar": 4731,
      "▁Free": 4732,
      "▁behavior": 4733,
      "▁clin": 4734,
      "Event": 4735,
      "▁column": 4736,
      "▁largest": 4737,
      "▁extremely": 4738,
      "▁transport": 4739,
      "▁batter": 4740,
      "▁defined": 4741,
      "▁script": 4742,
      "▁reality": 4743,
      "how": 4744,
      "▁waiting": 4745,
      "▁Christian": 4746,
      "▁Top": 4747,
      "▁baby": 4748,
      "▁attract": 4749,
      "▁£": 4750,
      "▁Spe": 4751,
      "▁plus": 4752,
      "▁equipment": 4753,
      "▁owners": 4754,
      "Service": 4755,
      "Of": 4756,
      "oving": 4757,
      "▁Mem": 4758,
      "▁PC": 4759,
      "iance": 4760,
      "eps": 4761,
      "pective": 4762,
      "▁assum": 4763,
      "▁#####": 4764,
      "rab": 4765,
      "gal": 4766,
      "▁Thom": 4767,
      "IV": 4768,
      "▁Bre": 4769,
      "▁micro": 4770,
      "osh": 4771,
      "▁Service": 4772,
      "New": 4773,
      "works": 4774,
      "respond": 4775,
      "▁opening": 4776,
      "▁Under": 4777,
      "▁width": 4778,
      "ii": 4779,
      "▁negative": 4780,
      "▁reached": 4781,
      "Field": 4782,
      "▁peace": 4783,
      "▁showed": 4784,
      "▁harm": 4785,
      "aper": 4786,
      "▁heavy": 4787,
      "▁bow": 4788,
      "▁epis": 4789,
      "▁Det": 4790,
      "▁psych": 4791,
      "othing": 4792,
      "▁Program": 4793,
      "▁node": 4794,
      "▁Australia": 4795,
      "▁bill": 4796,
      "▁Ann": 4797,
      "▁testing": 4798,
      "▁corpor": 4799,
      "▁thoughts": 4800,
      "▁\\\\": 4801,
      "▁analy": 4802,
      "////////": 4803,
      "▁Serv": 4804,
      "inct": 4805,
      "▁ok": 4806,
      "With": 4807,
      "▁__": 4808,
      "▁Review": 4809,
      "▁Form": 4810,
      "eah": 4811,
      "ль": 4812,
      "utor": 4813,
      "▁surround": 4814,
      "▁predict": 4815,
      "▁counter": 4816,
      "▁Each": 4817,
      "ferences": 4818,
      "▁origin": 4819,
      "▁patient": 4820,
      "gment": 4821,
      "asy": 4822,
      "▁std": 4823,
      "▁adjust": 4824,
      "\"></": 4825,
      "▁rule": 4826,
      "▁по": 4827,
      "image": 4828,
      "po": 4829,
      "▁actions": 4830,
      "▁Alex": 4831,
      "▁guide": 4832,
      "▁chem": 4833,
      "▁estim": 4834,
      "▁camera": 4835,
      "▁football": 4836,
      "amily": 4837,
      "ename": 4838,
      "MA": 4839,
      "▁French": 4840,
      "▁Whe": 4841,
      "▁efforts": 4842,
      "Log": 4843,
      "▁novel": 4844,
      "▁dry": 4845,
      "▁remind": 4846,
      "▁$(": 4847,
      "▁award": 4848,
      "rd": 4849,
      "useum": 4850,
      "▁described": 4851,
      "▁});": 4852,
      "▁Mag": 4853,
      "mail": 4854,
      "FL": 4855,
      "▁luck": 4856,
      "▁federal": 4857,
      "▁Hall": 4858,
      "▁advice": 4859,
      "▁earth": 4860,
      "▁advantage": 4861,
      "▁lots": 4862,
      "position": 4863,
      "▁Church": 4864,
      "ortunately": 4865,
      "ota": 4866,
      "well": 4867,
      "▁cert": 4868,
      "▁century": 4869,
      "▁Sa": 4870,
      "▁runs": 4871,
      "▁occas": 4872,
      "cord": 4873,
      "▁vill": 4874,
      "▁faith": 4875,
      "▁);": 4876,
      "▁biggest": 4877,
      "▁clearly": 4878,
      "▁properties": 4879,
      "▁contains": 4880,
      "▁session": 4881,
      "orry": 4882,
      "▁mur": 4883,
      "/*": 4884,
      "▁switch": 4885,
      "ushed": 4886,
      "ona": 4887,
      "▁requirements": 4888,
      "lient": 4889,
      "▁Str": 4890,
      "▁master": 4891,
      "▁born": 4892,
      "▁govern": 4893,
      "User": 4894,
      "▁driving": 4895,
      "lambda": 4896,
      "free": 4897,
      "otal": 4898,
      "▁Dec": 4899,
      "▁materials": 4900,
      "▁Met": 4901,
      "akers": 4902,
      "▁stick": 4903,
      "model": 4904,
      "▁random": 4905,
      "▁Arch": 4906,
      "▁button": 4907,
      "zen": 4908,
      "▁becomes": 4909,
      "▁margin": 4910,
      "▁regarding": 4911,
      "▁Bu": 4912,
      "hips": 4913,
      "Size": 4914,
      "▁Av": 4915,
      "ario": 4916,
      "▁scene": 4917,
      "scri": 4918,
      "};": 4919,
      "care": 4920,
      "▁transform": 4921,
      "▁tests": 4922,
      "▁nil": 4923,
      "ipped": 4924,
      "▁scale": 4925,
      "▁Apple": 4926,
      "ла": 4927,
      "look": 4928,
      "▁construct": 4929,
      "▁leader": 4930,
      "▁launch": 4931,
      "▁older": 4932,
      "▁anti": 4933,
      "▁pros": 4934,
      "▁Jer": 4935,
      "▁Ber": 4936,
      "▁cloud": 4937,
      "▁husband": 4938,
      "coin": 4939,
      "▁Jew": 4940,
      "flow": 4941,
      "Code": 4942,
      "▁Chinese": 4943,
      "▁driver": 4944,
      "▁rob": 4945,
      "ructure": 4946,
      "ctors": 4947,
      "png": 4948,
      "▁esc": 4949,
      "▁remains": 4950,
      "▁Ham": 4951,
      "▁description": 4952,
      "▁consult": 4953,
      "▁manager": 4954,
      "win": 4955,
      "▁mouth": 4956,
      "icit": 4957,
      "▁ID": 4958,
      "▁Where": 4959,
      "▁Life": 4960,
      "phi": 4961,
      "cles": 4962,
      "▁trend": 4963,
      "Context": 4964,
      "▁watching": 4965,
      "▁finding": 4966,
      "▁civil": 4967,
      "pid": 4968,
      "FA": 4969,
      "Be": 4970,
      "({": 4971,
      "▁rat": 4972,
      "▁jump": 4973,
      "▁spect": 4974,
      "▁central": 4975,
      "gor": 4976,
      "pass": 4977,
      "phone": 4978,
      "big": 4979,
      "▁rare": 4980,
      "▁Sum": 4981,
      "gers": 4982,
      "ipp": 4983,
      "▁regist": 4984,
      "▁entry": 4985,
      "▁Sal": 4986,
      "They": 4987,
      "▁incred": 4988,
      "▁England": 4989,
      "▁despite": 4990,
      "▁compar": 4991,
      "▁miles": 4992,
      "не": 4993,
      "ercial": 4994,
      "open": 4995,
      "usion": 4996,
      "▁caused": 4997,
      "itz": 4998,
      "Map": 4999,
      "clusion": 5000,
      "▁};": 5001,
      "\"]": 5002,
      "Def": 5003,
      "▁classes": 5004,
      "ias": 5005,
      "rian": 5006,
      "={": 5007,
      "▁Bank": 5008,
      "▁distance": 5009,
      "CL": 5010,
      "▁cards": 5011,
      "style": 5012,
      "▁coffee": 5013,
      "rapy": 5014,
      "▁leaving": 5015,
      "▁Texas": 5016,
      "▁sources": 5017,
      "▁\"\"\"": 5018,
      "define": 5019,
      "▁fan": 5020,
      "igation": 5021,
      "ologies": 5022,
      "▁storage": 5023,
      "▁;": 5024,
      "▁weather": 5025,
      "▁sweet": 5026,
      "▁Business": 5027,
      "▁Back": 5028,
      "▁weap": 5029,
      "RA": 5030,
      "▁raised": 5031,
      "▁adding": 5032,
      "▁drug": 5033,
      "tem": 5034,
      "stream": 5035,
      "▁core": 5036,
      "asure": 5037,
      "▁indic": 5038,
      "те": 5039,
      "▁COVID": 5040,
      "▁beat": 5041,
      "▁resist": 5042,
      "▁fant": 5043,
      "▁fol": 5044,
      "iques": 5045,
      "enses": 5046,
      "Message": 5047,
      "My": 5048,
      "▁returned": 5049,
      "▁Press": 5050,
      "▁rank": 5051,
      "Node": 5052,
      "true": 5053,
      "dule": 5054,
      "▁monitor": 5055,
      "▁calcul": 5056,
      "▁sale": 5057,
      "▁fold": 5058,
      "}^{": 5059,
      "▁Miss": 5060,
      "▁Maybe": 5061,
      "▁killed": 5062,
      "▁RE": 5063,
      "lands": 5064,
      "▁operations": 5065,
      "▁determine": 5066,
      "mathbb": 5067,
      "ptions": 5068,
      "itar": 5069,
      "▁annual": 5070,
      "grad": 5071,
      "▁failed": 5072,
      "▁audience": 5073,
      "ixt": 5074,
      "alle": 5075,
      "▁foreign": 5076,
      "▁border": 5077,
      "▁collabor": 5078,
      "rivate": 5079,
      "▁helping": 5080,
      "▁advert": 5081,
      "▁commercial": 5082,
      "▁label": 5083,
      "▁finish": 5084,
      "▁Fig": 5085,
      "She": 5086,
      "^{\\": 5087,
      "▁cra": 5088,
      "▁afford": 5089,
      "sey": 5090,
      "parent": 5091,
      "▁Sun": 5092,
      "ini": 5093,
      "▁Cap": 5094,
      "gency": 5095,
      "ris": 5096,
      "hens": 5097,
      "▁guid": 5098,
      "ildren": 5099,
      "NA": 5100,
      "▁export": 5101,
      "▁battle": 5102,
      "▁served": 5103,
      "▁produced": 5104,
      "▁Star": 5105,
      "▁prot": 5106,
      "ano": 5107,
      "▁ton": 5108,
      "▁ended": 5109,
      "▁journey": 5110,
      "icious": 5111,
      "MS": 5112,
      "fs": 5113,
      "▁Mary": 5114,
      "▁traffic": 5115,
      "olean": 5116,
      "▁auto": 5117,
      "▁feat": 5118,
      "▁keeping": 5119,
      "ander": 5120,
      "▁Sing": 5121,
      "▁challenges": 5122,
      "▁Flor": 5123,
      "▁sugar": 5124,
      "▁sounds": 5125,
      "”,": 5126,
      "cs": 5127,
      "which": 5128,
      "▁Lu": 5129,
      "▁Fore": 5130,
      "umer": 5131,
      "isation": 5132,
      "▁crow": 5133,
      "Array": 5134,
      "▁Vis": 5135,
      "Up": 5136,
      "▁shut": 5137,
      "query": 5138,
      "▁mill": 5139,
      "▁edge": 5140,
      "while": 5141,
      "▁Phil": 5142,
      "rt": 5143,
      "){": 5144,
      "anging": 5145,
      "▁None": 5146,
      "ston": 5147,
      "spec": 5148,
      "▁Bet": 5149,
      "▁Have": 5150,
      "▁appropriate": 5151,
      "ba": 5152,
      "oves": 5153,
      "lication": 5154,
      "▁attend": 5155,
      "▁majority": 5156,
      "▁magn": 5157,
      "request": 5158,
      "▁offering": 5159,
      "ns": 5160,
      "oyal": 5161,
      "▁establish": 5162,
      "ste": 5163,
      "▁mental": 5164,
      "▁none": 5165,
      "Index": 5166,
      "▁Lin": 5167,
      "asp": 5168,
      "▁appears": 5169,
      "▁daughter": 5170,
      "▁smaller": 5171,
      "▁mission": 5172,
      "args": 5173,
      "▁station": 5174,
      "ponent": 5175,
      "▁Vol": 5176,
      "apping": 5177,
      "▁Democr": 5178,
      "▁citiz": 5179,
      "bin": 5180,
      "izer": 5181,
      "▁Their": 5182,
      "iliar": 5183,
      "▁$$": 5184,
      "berg": 5185,
      "▁established": 5186,
      "▁theory": 5187,
      "▁responsible": 5188,
      "Fl": 5189,
      "ки": 5190,
      "DA": 5191,
      "itness": 5192,
      "Ser": 5193,
      "agram": 5194,
      "ucle": 5195,
      "▁balance": 5196,
      "▁Amazon": 5197,
      "▁Director": 5198,
      "▁pair": 5199,
      "▁shape": 5200,
      "So": 5201,
      "▁Build": 5202,
      "▁shop": 5203,
      "▁detect": 5204,
      "▁cris": 5205,
      "▁Project": 5206,
      "▁manage": 5207,
      "object": 5208,
      "▁Note": 5209,
      "src": 5210,
      "▁/**": 5211,
      "▁Question": 5212,
      "ython": 5213,
      "ui": 5214,
      "friend": 5215,
      "reedom": 5216,
      "▁forms": 5217,
      "▁missing": 5218,
      "osis": 5219,
      "uster": 5220,
      "▁highest": 5221,
      "▁gain": 5222,
      "▁partner": 5223,
      "rant": 5224,
      "▁flav": 5225,
      "▁otherwise": 5226,
      "EX": 5227,
      "▁pieces": 5228,
      "▁hab": 5229,
      "▁Power": 5230,
      "▁initi": 5231,
      "▁pages": 5232,
      "illa": 5233,
      "▁Plan": 5234,
      "▁Association": 5235,
      "▁presence": 5236,
      "▁photos": 5237,
      "web": 5238,
      "▁(!": 5239,
      "▁managed": 5240,
      "▁flu": 5241,
      "▁photo": 5242,
      "acks": 5243,
      "▁argument": 5244,
      "default": 5245,
      "▁rent": 5246,
      "Inst": 5247,
      "▁experienced": 5248,
      ">>": 5249,
      "▁Educ": 5250,
      "format": 5251,
      "▁mut": 5252,
      "▁Ins": 5253,
      "▁fish": 5254,
      "assert": 5255,
      "▁java": 5256,
      "▁-->": 5257,
      "ле": 5258,
      "ulate": 5259,
      "▁honest": 5260,
      "▁connected": 5261,
      "▁optim": 5262,
      "current": 5263,
      "▁placed": 5264,
      "cribe": 5265,
      "▁Mo": 5266,
      "▁street": 5267,
      "ffect": 5268,
      "▁colle": 5269,
      "▁covered": 5270,
      "rate": 5271,
      "▁League": 5272,
      "▁Before": 5273,
      "ulf": 5274,
      "▁protection": 5275,
      "hent": 5276,
      "▁approx": 5277,
      "▁asking": 5278,
      "▁Mil": 5279,
      ")}": 5280,
      "UL": 5281,
      "▁kid": 5282,
      "---": 5283,
      "▁owner": 5284,
      "''": 5285,
      "▁funds": 5286,
      "▁completed": 5287,
      "▁willing": 5288,
      "▁mostly": 5289,
      "▁profession": 5290,
      "vention": 5291,
      "▁becoming": 5292,
      "icken": 5293,
      "▁presented": 5294,
      "ipping": 5295,
      "▁Start": 5296,
      "ya": 5297,
      "▁src": 5298,
      "▁Government": 5299,
      "▁Da": 5300,
      "▁Const": 5301,
      "▁reference": 5302,
      "▁polic": 5303,
      "▁doubt": 5304,
      "▁exercise": 5305,
      "▁Mer": 5306,
      "▁worry": 5307,
      "▁starts": 5308,
      "▁Internet": 5309,
      "▁fill": 5310,
      "CE": 5311,
      "dden": 5312,
      "istan": 5313,
      "▁correspond": 5314,
      "amples": 5315,
      "▁Angel": 5316,
      "▁flex": 5317,
      "▁wonderful": 5318,
      "How": 5319,
      "igence": 5320,
      "▁root": 5321,
      "▁egg": 5322,
      "▁Company": 5323,
      "ón": 5324,
      "▁contr": 5325,
      "lla": 5326,
      "'),": 5327,
      "▁exception": 5328,
      "lo": 5329,
      "semb": 5330,
      "▁Africa": 5331,
      "▁unless": 5332,
      "result": 5333,
      "omet": 5334,
      "valid": 5335,
      "▁()": 5336,
      "▁ap": 5337,
      "posit": 5338,
      "alls": 5339,
      "estival": 5340,
      "aven": 5341,
      "▁continues": 5342,
      "Des": 5343,
      "Equ": 5344,
      "▁communities": 5345,
      "▁follows": 5346,
      "▁fixed": 5347,
      "Ent": 5348,
      "▁express": 5349,
      "▁func": 5350,
      "▁THE": 5351,
      "[\"": 5352,
      "▁victim": 5353,
      "ideos": 5354,
      "VER": 5355,
      "ло": 5356,
      "▁library": 5357,
      "TH": 5358,
      "▁rid": 5359,
      "night": 5360,
      "iler": 5361,
      "▁Step": 5362,
      "porary": 5363,
      "▁competition": 5364,
      "▁sch": 5365,
      "▁stopped": 5366,
      "status": 5367,
      "rency": 5368,
      "▁yes": 5369,
      "uce": 5370,
      "▁decide": 5371,
      "▁Bay": 5372,
      "▁vote": 5373,
      "▁separate": 5374,
      "▁]": 5375,
      "Model": 5376,
      "arp": 5377,
      "uled": 5378,
      "▁sector": 5379,
      "beta": 5380,
      "fra": 5381,
      "▁forget": 5382,
      "aked": 5383,
      "▁George": 5384,
      "▁protected": 5385,
      "▁poll": 5386,
      "▁selected": 5387,
      "ensions": 5388,
      "▁dynam": 5389,
      "ialog": 5390,
      "itors": 5391,
      "block": 5392,
      "ashion": 5393,
      "under": 5394,
      "▁+=": 5395,
      "▁sudden": 5396,
      "▁experiences": 5397,
      "▁claims": 5398,
      "olve": 5399,
      "▁м": 5400,
      "▁internal": 5401,
      "▁laun": 5402,
      "▁prop": 5403,
      "▁wa": 5404,
      "rees": 5405,
      "ette": 5406,
      "▁opinion": 5407,
      "ellow": 5408,
      "▁row": 5409,
      "▁Bra": 5410,
      "▁Lou": 5411,
      "▁eventually": 5412,
      "▁slightly": 5413,
      "FO": 5414,
      "▁brief": 5415,
      "▁prepared": 5416,
      "II": 5417,
      "ivery": 5418,
      "▁showing": 5419,
      "esh": 5420,
      "main": 5421,
      "▁rise": 5422,
      "▁eth": 5423,
      "▁posted": 5424,
      "▁rich": 5425,
      "▁sho": 5426,
      "unte": 5427,
      "▁expression": 5428,
      "gorith": 5429,
      "▁capacity": 5430,
      "▁independent": 5431,
      "▁raise": 5432,
      "ua": 5433,
      "▁explain": 5434,
      "ayout": 5435,
      "draw": 5436,
      "pret": 5437,
      "▁homes": 5438,
      "ky": 5439,
      "▁factor": 5440,
      "▁organizations": 5441,
      "▁Commit": 5442,
      "ulated": 5443,
      "▁nav": 5444,
      "ATE": 5445,
      "craft": 5446,
      "▁fields": 5447,
      "▁evening": 5448,
      "abilities": 5449,
      "▁alternative": 5450,
      "icine": 5451,
      "▁Run": 5452,
      "▁ice": 5453,
      "▁Ver": 5454,
      "ements": 5455,
      "▁{\\": 5456,
      "Out": 5457,
      "anta": 5458,
      "BA": 5459,
      "▁ship": 5460,
      "antic": 5461,
      "{{": 5462,
      "ria": 5463,
      "▁changing": 5464,
      "▁putting": 5465,
      "▁Both": 5466,
      "select": 5467,
      "▁supposed": 5468,
      "esome": 5469,
      "▁bag": 5470,
      "▁Take": 5471,
      "▁journal": 5472,
      "▁ran": 5473,
      "Read": 5474,
      "FI": 5475,
      "iency": 5476,
      "▁holding": 5477,
      "▁operation": 5478,
      "▁Social": 5479,
      "▁IT": 5480,
      "Over": 5481,
      "▁mort": 5482,
      "▁dram": 5483,
      "▁Board": 5484,
      "Att": 5485,
      "▁з": 5486,
      "▁developing": 5487,
      "abs": 5488,
      "▁listen": 5489,
      "find": 5490,
      "osure": 5491,
      "Hand": 5492,
      "osen": 5493,
      "▁pool": 5494,
      "▁Science": 5495,
      "Build": 5496,
      "lies": 5497,
      "▁minute": 5498,
      "olic": 5499,
      "▁Sil": 5500,
      "local": 5501,
      "server": 5502,
      "........": 5503,
      "rid": 5504,
      "▁species": 5505,
      "▁previously": 5506,
      "▁temperature": 5507,
      "▁cars": 5508,
      "▁possibly": 5509,
      "▁concent": 5510,
      "etime": 5511,
      "Ad": 5512,
      "▁Ok": 5513,
      "▁kick": 5514,
      "rip": 5515,
      "~~": 5516,
      "▁views": 5517,
      "▁herself": 5518,
      "arsh": 5519,
      "}_{": 5520,
      "▁Office": 5521,
      "▁echo": 5522,
      "edia": 5523,
      "▁visual": 5524,
      "ls": 5525,
      "▁coach": 5526,
      "uffer": 5527,
      "▁secure": 5528,
      "▁caught": 5529,
      "▁info": 5530,
      "▁Log": 5531,
      "▁seconds": 5532,
      "▁princ": 5533,
      "rum": 5534,
      "▁Find": 5535,
      "level": 5536,
      "output": 5537,
      "standing": 5538,
      "lis": 5539,
      "▁sets": 5540,
      "▁NOT": 5541,
      "▁animals": 5542,
      "▁forg": 5543,
      "▁Camp": 5544,
      "source": 5545,
      "▁bought": 5546,
      "▁exhib": 5547,
      "▁leaves": 5548,
      "▁weak": 5549,
      "▁discover": 5550,
      "▁discussion": 5551,
      "▁Smith": 5552,
      "▁plenty": 5553,
      "▁retail": 5554,
      "▁Its": 5555,
      "Element": 5556,
      "message": 5557,
      "uries": 5558,
      "cons": 5559,
      "▁grant": 5560,
      "PC": 5561,
      "std": 5562,
      "▁incor": 5563,
      "▁Lear": 5564,
      "orter": 5565,
      "▁eating": 5566,
      "PE": 5567,
      "PR": 5568,
      "▁Fire": 5569,
      "▁appoint": 5570,
      "▁bul": 5571,
      "Sc": 5572,
      "rowser": 5573,
      "▁Minister": 5574,
      "▁doctor": 5575,
      "▁Jul": 5576,
      "▁decre": 5577,
      "aid": 5578,
      "▁Year": 5579,
      "▁sympt": 5580,
      "SC": 5581,
      "ita": 5582,
      "▁River": 5583,
      "▁absolutely": 5584,
      "▁plants": 5585,
      "▁girls": 5586,
      "▁virtual": 5587,
      "▁Commission": 5588,
      "});": 5589,
      "ifier": 5590,
      "▁relevant": 5591,
      "▁spending": 5592,
      "ki": 5593,
      "▁uns": 5594,
      "▁distribution": 5595,
      "▁End": 5596,
      "▁bra": 5597,
      "oding": 5598,
      "TR": 5599,
      "ses": 5600,
      "▁typically": 5601,
      "▁thr": 5602,
      "▁Que": 5603,
      "▁corner": 5604,
      "urb": 5605,
      "▁records": 5606,
      "▁legisl": 5607,
      "▁agg": 5608,
      "esterday": 5609,
      "▁Ve": 5610,
      "riage": 5611,
      "▁sea": 5612,
      "▁mine": 5613,
      "▁kitchen": 5614,
      "▁pictures": 5615,
      "▁officials": 5616,
      "▁communication": 5617,
      "rig": 5618,
      "▁font": 5619,
      "▁Florida": 5620,
      "exp": 5621,
      "▁spring": 5622,
      "▁thousands": 5623,
      "HT": 5624,
      "▁interface": 5625,
      "да": 5626,
      "▁diagn": 5627,
      "▁Mad": 5628,
      "▁Tim": 5629,
      "▁efficient": 5630,
      "▁focused": 5631,
      "▁markets": 5632,
      "▁smooth": 5633,
      "ker": 5634,
      "▁module": 5635,
      "gener": 5636,
      "▁tight": 5637,
      "▁generation": 5638,
      "oma": 5639,
      "At": 5640,
      "long": 5641,
      "▁decisions": 5642,
      "▁motor": 5643,
      "KE": 5644,
      "ala": 5645,
      "that": 5646,
      "▁har": 5647,
      "oses": 5648,
      "▁Long": 5649,
      "▁Main": 5650,
      "▁flat": 5651,
      "stract": 5652,
      "OW": 5653,
      "▁supported": 5654,
      "ensity": 5655,
      "▁entertain": 5656,
      "▁stated": 5657,
      "▁conference": 5658,
      "och": 5659,
      "ouble": 5660,
      "angle": 5661,
      "▁German": 5662,
      "roud": 5663,
      "othes": 5664,
      "▁vision": 5665,
      "apers": 5666,
      "fficient": 5667,
      "▁notes": 5668,
      "ди": 5669,
      "▁ban": 5670,
      "▁Congress": 5671,
      "▁coverage": 5672,
      "▁calling": 5673,
      "▁situ": 5674,
      "▁Inte": 5675,
      "▁pand": 5676,
      "▁appeared": 5677,
      "▁Game": 5678,
      "▁Services": 5679,
      "▁filled": 5680,
      "▁Only": 5681,
      "PL": 5682,
      "▁excited": 5683,
      "cial": 5684,
      "▁adapt": 5685,
      "▁numerous": 5686,
      "▁selection": 5687,
      "len": 5688,
      "▁pal": 5689,
      "▁Mex": 5690,
      "▁anc": 5691,
      "▁sustain": 5692,
      "Fr": 5693,
      "▁returns": 5694,
      "▁boost": 5695,
      "▁resource": 5696,
      "▁Road": 5697,
      "▁tips": 5698,
      "▁/>": 5699,
      "client": 5700,
      "▁trial": 5701,
      "tw": 5702,
      "acement": 5703,
      "▁chair": 5704,
      "QL": 5705,
      "▁worse": 5706,
      "▁tag": 5707,
      "▁Club": 5708,
      "▁ms": 5709,
      "fast": 5710,
      "    ": 5711,
      "▁«": 5712,
      "▁sand": 5713,
      "és": 5714,
      "▁clim": 5715,
      "▁database": 5716,
      "▁arms": 5717,
      "▁pun": 5718,
      "▁quiet": 5719,
      "▁architect": 5720,
      "▁pm": 5721,
      "▁acad": 5722,
      "▁frame": 5723,
      "▁cop": 5724,
      "▁expensive": 5725,
      "▁leads": 5726,
      "▁buying": 5727,
      "▁Bur": 5728,
      "ora": 5729,
      "▁vacc": 5730,
      "ossible": 5731,
      "uty": 5732,
      "cohol": 5733,
      "▁feels": 5734,
      "▁Earth": 5735,
      "▁reli": 5736,
      "▁exchange": 5737,
      "▁View": 5738,
      "rier": 5739,
      "dy": 5740,
      "ented": 5741,
      "▁components": 5742,
      "olly": 5743,
      "▁Microsoft": 5744,
      "▁creative": 5745,
      "▁Pub": 5746,
      "▁guarant": 5747,
      "▁ideal": 5748,
      "▁veget": 5749,
      "▁Dev": 5750,
      "▁Fil": 5751,
      "Count": 5752,
      "`,": 5753,
      "▁election": 5754,
      "▁empty": 5755,
      "▁Tor": 5756,
      "▁nor": 5757,
      "ds": 5758,
      "PA": 5759,
      "▁channel": 5760,
      "▁conversation": 5761,
      "▁forces": 5762,
      "▁climate": 5763,
      "▁winter": 5764,
      "+\\": 5765,
      "▁influence": 5766,
      "▁settings": 5767,
      "▁Does": 5768,
      "▁identify": 5769,
      "Response": 5770,
      "▁intell": 5771,
      "▁Hy": 5772,
      "▁arrest": 5773,
      "odies": 5774,
      "▁Call": 5775,
      "▁loan": 5776,
      "▁component": 5777,
      "▁bright": 5778,
      "uit": 5779,
      "scious": 5780,
      "▁Using": 5781,
      "Date": 5782,
      "▁Obama": 5783,
      "▁senior": 5784,
      "nel": 5785,
      "▁API": 5786,
      "▁injury": 5787,
      "▁sitting": 5788,
      "▁walking": 5789,
      "going": 5790,
      "▁circum": 5791,
      "▁removed": 5792,
      "▁rain": 5793,
      "ifact": 5794,
      "▁remote": 5795,
      "EST": 5796,
      "import": 5797,
      "▁Peter": 5798,
      "▁taste": 5799,
      "▁whom": 5800,
      "▁Scott": 5801,
      "pload": 5802,
      "▁Vir": 5803,
      "▁symbol": 5804,
      "rics": 5805,
      "▁pulled": 5806,
      "▁advance": 5807,
      "▁susp": 5808,
      "▁Institute": 5809,
      "▁tit": 5810,
      "▁USA": 5811,
      "▁prepar": 5812,
      "▁crypt": 5813,
      "▁trees": 5814,
      "▁agreement": 5815,
      ".'": 5816,
      "▁(\\": 5817,
      "▁Frank": 5818,
      "outhern": 5819,
      "button": 5820,
      "▁laws": 5821,
      "▁applied": 5822,
      "▁bird": 5823,
      "yles": 5824,
      "▁sharing": 5825,
      "▁snow": 5826,
      "▁France": 5827,
      "▁vac": 5828,
      "▁Word": 5829,
      "▁pod": 5830,
      "hi": 5831,
      "ер": 5832,
      "actory": 5833,
      "ads": 5834,
      "▁Tur": 5835,
      "▁Gen": 5836,
      "lam": 5837,
      "▁　": 5838,
      "▁Food": 5839,
      "▁UN": 5840,
      "event": 5841,
      "▁conflic": 5842,
      "dat": 5843,
      "▁volume": 5844,
      "estic": 5845,
      "▁familiar": 5846,
      "plugin": 5847,
      "^{-": 5848,
      "▁Twitter": 5849,
      "▁Water": 5850,
      "raction": 5851,
      "option": 5852,
      "▁Care": 5853,
      "ilon": 5854,
      "▁trading": 5855,
      "append": 5856,
      "▁minor": 5857,
      "▁Pet": 5858,
      "▁debt": 5859,
      "▁teaching": 5860,
      "outs": 5861,
      "^\\": 5862,
      "▁north": 5863,
      "▁Er": 5864,
      "▁coord": 5865,
      "▁Human": 5866,
      "▁odd": 5867,
      "ти": 5868,
      "▁answ": 5869,
      "FT": 5870,
      "Trans": 5871,
      "mt": 5872,
      "▁Development": 5873,
      "▁Di": 5874,
      "▁Robert": 5875,
      "▁ingred": 5876,
      "▁consequ": 5877,
      "▁equal": 5878,
      "▁Week": 5879,
      "▁Grand": 5880,
      "abet": 5881,
      "▁examples": 5882,
      "etch": 5883,
      "fty": 5884,
      "▁Second": 5885,
      "▁standing": 5886,
      "real": 5887,
      "▁proposed": 5888,
      "▁Those": 5889,
      "▁fif": 5890,
      "▁funding": 5891,
      "▁paint": 5892,
      "OC": 5893,
      "▁С": 5894,
      "./": 5895,
      "▁forced": 5896,
      "▁Bas": 5897,
      "▁Times": 5898,
      "SD": 5899,
      "▁technical": 5900,
      "▁operating": 5901,
      "▁famous": 5902,
      "▁Real": 5903,
      "▁Nov": 5904,
      "frast": 5905,
      "▁south": 5906,
      "▁topic": 5907,
      "dered": 5908,
      "▁Div": 5909,
      "▁trig": 5910,
      "reek": 5911,
      "▁residents": 5912,
      "▁properly": 5913,
      "▁crim": 5914,
      "▁introduced": 5915,
      "','": 5916,
      "▁Next": 5917,
      "▁thread": 5918,
      "▁url": 5919,
      "▁Hill": 5920,
      "▁Design": 5921,
      "▁stood": 5922,
      "▁Management": 5923,
      "▁payment": 5924,
      "▁Instead": 5925,
      "weight": 5926,
      "adding": 5927,
      "you": 5928,
      "▁selling": 5929,
      "▁faster": 5930,
      "▁objects": 5931,
      ".[": 5932,
      "otic": 5933,
      "▁rot": 5934,
      "edy": 5935,
      "▁performed": 5936,
      "▁Author": 5937,
      "Ed": 5938,
      "SON": 5939,
      "ading": 5940,
      "▁defense": 5941,
      "▁joined": 5942,
      "▁File": 5943,
      "icago": 5944,
      "▁sched": 5945,
      "\"><": 5946,
      "▁apparent": 5947,
      "▁CD": 5948,
      "▁constant": 5949,
      "▁Jud": 5950,
      "rolled": 5951,
      "▁wear": 5952,
      "▁processes": 5953,
      "▁sport": 5954,
      "▁sample": 5955,
      "gt": 5956,
      "▁concerns": 5957,
      "▁Show": 5958,
      "abin": 5959,
      "▁minimum": 5960,
      "oles": 5961,
      "sigma": 5962,
      "▁About": 5963,
      "idget": 5964,
      "ircle": 5965,
      "▁Team": 5966,
      "anda": 5967,
      "anges": 5968,
      "▁videos": 5969,
      "▁Date": 5970,
      "▁neighbor": 5971,
      "ilde": 5972,
      "adow": 5973,
      "てい": 5974,
      "mes": 5975,
      "▁links": 5976,
      "▁fuel": 5977,
      "▁practices": 5978,
      "▁winning": 5979,
      "!--": 5980,
      "▁lived": 5981,
      "▁Jim": 5982,
      "ulture": 5983,
      "aks": 5984,
      "▁medium": 5985,
      "▁Mount": 5986,
      "▁Jo": 5987,
      "GB": 5988,
      "▁accident": 5989,
      "▁Central": 5990,
      "▁mo": 5991,
      "▁broken": 5992,
      "▁measures": 5993,
      "fit": 5994,
      "▁explore": 5995,
      "▁signed": 5996,
      "va": 5997,
      "▁wine": 5998,
      "▁Mel": 5999,
      "▁closer": 6000,
      "▁Union": 6001,
      "▁Americans": 6002,
      "▁leadership": 6003,
      "▁www": 6004,
      "Client": 6005,
      "▁Love": 6006,
      "fol": 6007,
      "▁Bit": 6008,
      "▁Invest": 6009,
      "atal": 6010,
      "rl": 6011,
      "▁standards": 6012,
      "PD": 6013,
      "▁Blue": 6014,
      "▁artist": 6015,
      "▁ment": 6016,
      "▁realize": 6017,
      "yer": 6018,
      "▁belong": 6019,
      "rome": 6020,
      "▁cheap": 6021,
      "▁Brown": 6022,
      "Su": 6023,
      "arser": 6024,
      "▁Franc": 6025,
      "▁simpl": 6026,
      "▁walked": 6027,
      "rypt": 6028,
      "UM": 6029,
      "▁Education": 6030,
      "▁Key": 6031,
      "▁soul": 6032,
      "'.": 6033,
      "▁Tre": 6034,
      "▁allowing": 6035,
      "▁Thomas": 6036,
      "った": 6037,
      "▁rapid": 6038,
      "▁conver": 6039,
      "▁motiv": 6040,
      "ormal": 6041,
      "▁god": 6042,
      "▁anx": 6043,
      "▁HT": 6044,
      "life": 6045,
      "RL": 6046,
      "▁Old": 6047,
      "SA": 6048,
      "▁units": 6049,
      "▁ju": 6050,
      "▁female": 6051,
      "mathbf": 6052,
      "▁Community": 6053,
      "▁accompl": 6054,
      "▁writer": 6055,
      "▁combination": 6056,
      "Manager": 6057,
      "▁Hot": 6058,
      "▁comfortable": 6059,
      "clusive": 6060,
      "▁Rock": 6061,
      "eal": 6062,
      "▁passion": 6063,
      "▁Kore": 6064,
      "▁discovered": 6065,
      "sim": 6066,
      "cos": 6067,
      "▁Police": 6068,
      "▁Journal": 6069,
      "▁ris": 6070,
      "grade": 6071,
      "▁Down": 6072,
      "▁ride": 6073,
      "▁Id": 6074,
      "eless": 6075,
      "amin": 6076,
      "last": 6077,
      "num": 6078,
      "▁totally": 6079,
      "▁importance": 6080,
      "▁labor": 6081,
      "▁parties": 6082,
      "write": 6083,
      "▁Germany": 6084,
      "▁radio": 6085,
      "▁Profess": 6086,
      "▁Max": 6087,
      "▁nom": 6088,
      "leq": 6089,
      "▁department": 6090,
      "▁Mill": 6091,
      "related": 6092,
      "▁metal": 6093,
      "▁tele": 6094,
      "irmed": 6095,
      "▁Dig": 6096,
      "▁DE": 6097,
      "bert": 6098,
      "noon": 6099,
      "▁mir": 6100,
      "▁Report": 6101,
      "oration": 6102,
      "ulations": 6103,
      "orthern": 6104,
      "▁Therefore": 6105,
      "▁Android": 6106,
      "ja": 6107,
      "kins": 6108,
      "▁generate": 6109,
      "▁updated": 6110,
      "▁``": 6111,
      "▁Security": 6112,
      "▁reviews": 6113,
      "▁survey": 6114,
      "indow": 6115,
      "▁alt": 6116,
      "inte": 6117,
      "').": 6118,
      "▁thick": 6119,
      "▁joint": 6120,
      "▁instr": 6121,
      "▁gift": 6122,
      "nb": 6123,
      "elines": 6124,
      "▁liqu": 6125,
      "▁dinner": 6126,
      "weet": 6127,
      "▁б": 6128,
      "▁tro": 6129,
      "▁ ": 6130,
      "▁brings": 6131,
      "dr": 6132,
      "▁symptoms": 6133,
      "▁hero": 6134,
      "Color": 6135,
      "▁sexual": 6136,
      "null": 6137,
      "▁proud": 6138,
      "git": 6139,
      "▁Ext": 6140,
      "▁teacher": 6141,
      "▁theme": 6142,
      "▁Wil": 6143,
      "has": 6144,
      "▁Russia": 6145,
      "java": 6146,
      "▁CEO": 6147,
      "▁telling": 6148,
      "▁posts": 6149,
      "press": 6150,
      "▁schedule": 6151,
      "▁explained": 6152,
      "▁Carol": 6153,
      "▁animal": 6154,
      "eper": 6155,
      "▁seat": 6156,
      "▁Music": 6157,
      "▁considering": 6158,
      "frastructure": 6159,
      "▁policies": 6160,
      "From": 6161,
      "▁у": 6162,
      "▁chain": 6163,
      "▁maximum": 6164,
      "▁rub": 6165,
      "Inter": 6166,
      "▁noted": 6167,
      "▁waste": 6168,
      "▁bool": 6169,
      "yan": 6170,
      "aren": 6171,
      "▁poly": 6172,
      "▁failure": 6173,
      "hab": 6174,
      "▁proof": 6175,
      "▁plays": 6176,
      ")(": 6177,
      "summary": 6178,
      "ena": 6179,
      "▁Ma": 6180,
      "IA": 6181,
      "▁cities": 6182,
      "Us": 6183,
      "lines": 6184,
      "▁[]": 6185,
      "De": 6186,
      "ifications": 6187,
      "??": 6188,
      "▁route": 6189,
      "▁knowing": 6190,
      "phas": 6191,
      "lem": 6192,
      "she": 6193,
      "▁welcome": 6194,
      "gent": 6195,
      "▁hun": 6196,
      "▁cream": 6197,
      "▁phil": 6198,
      "▁king": 6199,
      "▁destroy": 6200,
      "erved": 6201,
      "▁reduced": 6202,
      "▁arrived": 6203,
      "▁occup": 6204,
      "project": 6205,
      "▁salt": 6206,
      "▁advanced": 6207,
      "▁Exper": 6208,
      "Param": 6209,
      "▁hearing": 6210,
      "▁advent": 6211,
      "▁seek": 6212,
      "okes": 6213,
      "▁manufacture": 6214,
      "▁Den": 6215,
      "▁relationships": 6216,
      "then": 6217,
      "▁administration": 6218,
      "▁causes": 6219,
      "▁panel": 6220,
      "▁reb": 6221,
      "▁Mike": 6222,
      "ста": 6223,
      "▁zero": 6224,
      "▁hell": 6225,
      "ypes": 6226,
      "▁bes": 6227,
      "▁Did": 6228,
      "▁stre": 6229,
      "▁dress": 6230,
      "▁breath": 6231,
      "}{\\": 6232,
      "▁shock": 6233,
      "target": 6234,
      "▁agreed": 6235,
      "depend": 6236,
      "▁agency": 6237,
      "▁battery": 6238,
      "▁carried": 6239,
      "▁chief": 6240,
      "▁determined": 6241,
      "TP": 6242,
      "`.": 6243,
      "▁elim": 6244,
      "▁Elect": 6245,
      "▁}\r": 6246,
      "▁['": 6247,
      "▁estate": 6248,
      "▁crisis": 6249,
      "▁techniques": 6250,
      "dro": 6251,
      "connect": 6252,
      "▁pure": 6253,
      "▁Chicago": 6254,
      "foot": 6255,
      "▁wed": 6256,
      "atin": 6257,
      "▁Offic": 6258,
      "search": 6259,
      "▁citizens": 6260,
      "ship": 6261,
      "▁concerned": 6262,
      "▁CH": 6263,
      "▁volunte": 6264,
      "▁accounts": 6265,
      "▁Keep": 6266,
      "▁Island": 6267,
      "▁conven": 6268,
      "Dis": 6269,
      "theta": 6270,
      "apped": 6271,
      "▁phase": 6272,
      "▁unc": 6273,
      "▁bond": 6274,
      "▁Engine": 6275,
      "▁delivery": 6276,
      "olved": 6277,
      "▁turns": 6278,
      "▁===": 6279,
      "uable": 6280,
      "rene": 6281,
      "▁massive": 6282,
      "▁teachers": 6283,
      "▁desk": 6284,
      "TER": 6285,
      "FC": 6286,
      "▁Lake": 6287,
      "▁Thus": 6288,
      "▁~": 6289,
      "irty": 6290,
      "▁Card": 6291,
      "▁helpful": 6292,
      "▁craft": 6293,
      "▁imagine": 6294,
      "▁significantly": 6295,
      "rer": 6296,
      "\").": 6297,
      "▁hotel": 6298,
      "▁tun": 6299,
      "▁listed": 6300,
      "▁trouble": 6301,
      "When": 6302,
      "▁Land": 6303,
      "▁songs": 6304,
      "▁apps": 6305,
      "orney": 6306,
      "unc": 6307,
      "▁hyp": 6308,
      "▁sides": 6309,
      "levision": 6310,
      "▁Global": 6311,
      "▁fourth": 6312,
      "▁auth": 6313,
      "pes": 6314,
      "▁relax": 6315,
      "times": 6316,
      "▁IP": 6317,
      "bour": 6318,
      "▁Finally": 6319,
      "▁desire": 6320,
      "▁specifically": 6321,
      "gamma": 6322,
      "▁describe": 6323,
      "▁District": 6324,
      "▁compre": 6325,
      "▁Mot": 6326,
      "▁pu": 6327,
      "▁Chris": 6328,
      "▁Media": 6329,
      "▁Cup": 6330,
      "▁episode": 6331,
      "riter": 6332,
      "▁Which": 6333,
      "delta": 6334,
      ">(": 6335,
      "▁sav": 6336,
      "▁launched": 6337,
      "font": 6338,
      "▁sad": 6339,
      "▁filter": 6340,
      "▁Further": 6341,
      "▁tough": 6342,
      "▁youth": 6343,
      "▁pandemic": 6344,
      "car": 6345,
      "▁fle": 6346,
      "▁nucle": 6347,
      "▁prison": 6348,
      "▁religious": 6349,
      "▁menu": 6350,
      "▁fuck": 6351,
      "▁freedom": 6352,
      "arts": 6353,
      "▁ourselves": 6354,
      "▁rac": 6355,
      "▁experts": 6356,
      "▁William": 6357,
      "igration": 6358,
      "▁paying": 6359,
      "azine": 6360,
      "▁Pay": 6361,
      "▁Oper": 6362,
      "amm": 6363,
      "igen": 6364,
      "▁sister": 6365,
      "rist": 6366,
      "▁Ill": 6367,
      "▁tow": 6368,
      "▁wire": 6369,
      "anged": 6370,
      "▁busy": 6371,
      "▁Foundation": 6372,
      "▁signs": 6373,
      "ipes": 6374,
      "▁Type": 6375,
      "▁remaining": 6376,
      "▁stret": 6377,
      "▁Follow": 6378,
      "▁Western": 6379,
      "cm": 6380,
      "▁dedicated": 6381,
      "▁editor": 6382,
      "ployment": 6383,
      "bal": 6384,
      "essions": 6385,
      "▁violence": 6386,
      "css": 6387,
      "▁Russian": 6388,
      "asket": 6389,
      "▁depending": 6390,
      "▁cultural": 6391,
      "▁hurt": 6392,
      "▁reco": 6393,
      "▁го": 6394,
      "prise": 6395,
      "▁African": 6396,
      "!\"": 6397,
      "oted": 6398,
      "▁Committee": 6399,
      "▁PR": 6400,
      "▁tells": 6401,
      "▁parameters": 6402,
      "▁Bi": 6403,
      "▁Light": 6404,
      "▁Information": 6405,
      "▁Wood": 6406,
      "▁console": 6407,
      "ighter": 6408,
      "ны": 6409,
      "CO": 6410,
      "gery": 6411,
      "▁Chief": 6412,
      "▁smile": 6413,
      "▁restrict": 6414,
      "▁History": 6415,
      "▁gro": 6416,
      "▁environmental": 6417,
      "Box": 6418,
      "▁revealed": 6419,
      "▁garden": 6420,
      "▁noticed": 6421,
      "Bl": 6422,
      "Sub": 6423,
      "▁category": 6424,
      "▁speaking": 6425,
      "▁installed": 6426,
      "▁replace": 6427,
      "▁Richard": 6428,
      "acle": 6429,
      "▁meat": 6430,
      "▁affected": 6431,
      "first": 6432,
      "▁Hol": 6433,
      "ader": 6434,
      "▁prove": 6435,
      "▁nod": 6436,
      "▁slowly": 6437,
      "▁shift": 6438,
      "Group": 6439,
      "Result": 6440,
      "▁guard": 6441,
      "▁\"^": 6442,
      "▁exists": 6443,
      "▁Atl": 6444,
      "▁tables": 6445,
      "▁Tem": 6446,
      "▁circumst": 6447,
      "▁vent": 6448,
      "*}": 6449,
      "ashed": 6450,
      "bug": 6451,
      "obe": 6452,
      "XFF": 6453,
      "▁identity": 6454,
      "▁identified": 6455,
      "pg": 6456,
      "▁dollars": 6457,
      "▁afternoon": 6458,
      "▁dra": 6459,
      "▁amb": 6460,
      "▁bon": 6461,
      "otes": 6462,
      "▁Francis": 6463,
      "▁Jose": 6464,
      "cr": 6465,
      "▁articles": 6466,
      "stack": 6467,
      "▁arrang": 6468,
      "▁gather": 6469,
      "thlet": 6470,
      "▁buff": 6471,
      "▁hur": 6472,
      "▁bigger": 6473,
      "▁picked": 6474,
      "▁perspective": 6475,
      "▁happening": 6476,
      "▁speech": 6477,
      "▁Color": 6478,
      "▁ax": 6479,
      "▁mere": 6480,
      "Image": 6481,
      "▁entirely": 6482,
      "▁Prov": 6483,
      "▁fashion": 6484,
      "▁Posted": 6485,
      "▁Women": 6486,
      "▁Joe": 6487,
      "▁twice": 6488,
      "ione": 6489,
      "else": 6490,
      "▁nine": 6491,
      "inating": 6492,
      "det": 6493,
      "▁documents": 6494,
      "▁Rev": 6495,
      "power": 6496,
      "▁assume": 6497,
      "▁messages": 6498,
      "▁restaurant": 6499,
      "ola": 6500,
      "fin": 6501,
      "▁teach": 6502,
      "▁Organ": 6503,
      "▁stars": 6504,
      "zer": 6505,
      "▁announce": 6506,
      "Don": 6507,
      "▁bringing": 6508,
      "▁П": 6509,
      "nergy": 6510,
      "▁les": 6511,
      "iveness": 6512,
      "struct": 6513,
      "▁Nor": 6514,
      "hr": 6515,
      "han": 6516,
      "Table": 6517,
      "▁Person": 6518,
      "▁yesterday": 6519,
      "▁sac": 6520,
      "▁highlight": 6521,
      "kin": 6522,
      "▁witness": 6523,
      "▁conserv": 6524,
      "▁profile": 6525,
      "itionally": 6526,
      "▁Mass": 6527,
      "▁tom": 6528,
      "xx": 6529,
      "▁Custom": 6530,
      "fection": 6531,
      "▁revenue": 6532,
      "▁univers": 6533,
      "▁Stand": 6534,
      "▁Wal": 6535,
      "▁combined": 6536,
      "SI": 6537,
      "pir": 6538,
      "bi": 6539,
      "▁Vict": 6540,
      "(&": 6541,
      "▁square": 6542,
      "▁strategies": 6543,
      "▁alle": 6544,
      "\",\"": 6545,
      "▁usual": 6546,
      "▁fre": 6547,
      "ма": 6548,
      "Act": 6549,
      "▁definition": 6550,
      "ura": 6551,
      "▁enjoyed": 6552,
      "▁Special": 6553,
      "infty": 6554,
      "▁os": 6555,
      "▁relatively": 6556,
      "aa": 6557,
      "ви": 6558,
      "▁artists": 6559,
      "▁holds": 6560,
      "=>": 6561,
      "▁fort": 6562,
      "▁motion": 6563,
      "▁shel": 6564,
      "▁Online": 6565,
      "▁district": 6566,
      "▁terror": 6567,
      "Ut": 6568,
      "▁Leg": 6569,
      "▁layer": 6570,
      "▁automatically": 6571,
      "▁algorith": 6572,
      "▁alcohol": 6573,
      "▁Jon": 6574,
      "sembly": 6575,
      "iat": 6576,
      "▁fab": 6577,
      "▁Bob": 6578,
      "outer": 6579,
      "▁q": 6580,
      "cean": 6581,
      "▁flight": 6582,
      "inding": 6583,
      "True": 6584,
      "product": 6585,
      "▁Sand": 6586,
      "van": 6587,
      "▁recipe": 6588,
      "ector": 6589,
      "▁Fund": 6590,
      "rho": 6591,
      "▁rough": 6592,
      "▁Hen": 6593,
      "▁aspects": 6594,
      "$-": 6595,
      "osite": 6596,
      "▁dropped": 6597,
      "▁chemical": 6598,
      "▁yield": 6599,
      "TO": 6600,
      "▁butter": 6601,
      "claim": 6602,
      "▁consumers": 6603,
      "▁---": 6604,
      "▁intended": 6605,
      "▁Gal": 6606,
      "ailed": 6607,
      "▁officer": 6608,
      "▁laugh": 6609,
      "▁Party": 6610,
      "▁creation": 6611,
      "▁draft": 6612,
      "▁realized": 6613,
      "ão": 6614,
      "▁Rad": 6615,
      "hem": 6616,
      "▁enable": 6617,
      "rible": 6618,
      "ansion": 6619,
      "▁responsibility": 6620,
      "▁stores": 6621,
      "▁dangerous": 6622,
      "▁protein": 6623,
      "▁divid": 6624,
      "ructions": 6625,
      "/>": 6626,
      "▁ring": 6627,
      "Input": 6628,
      "uts": 6629,
      "▁spoke": 6630,
      "▁Watch": 6631,
      "▁variable": 6632,
      "ributes": 6633,
      "▁decades": 6634,
      "nu": 6635,
      "Reg": 6636,
      "▁Enter": 6637,
      "▁magic": 6638,
      "person": 6639,
      "▁consumer": 6640,
      "▁agent": 6641,
      "▁liber": 6642,
      "▁improved": 6643,
      "▁fruit": 6644,
      "tra": 6645,
      "▁drugs": 6646,
      "bro": 6647,
      "▁Los": 6648,
      "▁confidence": 6649,
      "only": 6650,
      "▁Chapter": 6651,
      "height": 6652,
      "iest": 6653,
      "scape": 6654,
      "author": 6655,
      "olds": 6656,
      "oking": 6657,
      "aped": 6658,
      "▁Init": 6659,
      "▁AD": 6660,
      "▁sky": 6661,
      "▁bath": 6662,
      "env": 6663,
      "Ass": 6664,
      "graph": 6665,
      "cipl": 6666,
      "▁shares": 6667,
      "orem": 6668,
      "ishes": 6669,
      "▁windows": 6670,
      "Line": 6671,
      "gage": 6672,
      "covery": 6673,
      "▁manner": 6674,
      "▁Cy": 6675,
      "inations": 6676,
      "TC": 6677,
      "▁fighting": 6678,
      "▁Virgin": 6679,
      "▁milk": 6680,
      "▁anywhere": 6681,
      "quad": 6682,
      "▁Secret": 6683,
      "▁dogs": 6684,
      "reens": 6685,
      "▁por": 6686,
      "▁Louis": 6687,
      "ocolate": 6688,
      "System": 6689,
      "▁choices": 6690,
      "▁na": 6691,
      "process": 6692,
      "▁crime": 6693,
      "Query": 6694,
      "▁foods": 6695,
      "Status": 6696,
      "▁Create": 6697,
      "▁tasks": 6698,
      "▁hadn": 6699,
      "uting": 6700,
      "▁Lic": 6701,
      "▁Support": 6702,
      "▁holiday": 6703,
      "▁Mont": 6704,
      "▁investors": 6705,
      "▁bare": 6706,
      "▁transition": 6707,
      "▁brown": 6708,
      "▁classic": 6709,
      "///": 6710,
      "mo": 6711,
      "▁missed": 6712,
      "▁Right": 6713,
      "▁married": 6714,
      "▁Through": 6715,
      "iki": 6716,
      "tenance": 6717,
      "▁vehicles": 6718,
      "▁indeed": 6719,
      "break": 6720,
      "▁wal": 6721,
      "▁define": 6722,
      "aze": 6723,
      "▁turning": 6724,
      "Point": 6725,
      "ounter": 6726,
      "iner": 6727,
      "▁exciting": 6728,
      "▁worst": 6729,
      "▁attacks": 6730,
      "▁obtained": 6731,
      ",\r": 6732,
      "▁prepare": 6733,
      "▁à": 6734,
      "▁Despite": 6735,
      "▁ends": 6736,
      ",’": 6737,
      "▁signal": 6738,
      "▁ко": 6739,
      "▁Town": 6740,
      "▁cro": 6741,
      "itutions": 6742,
      "update": 6743,
      "cknow": 6744,
      "▁Canad": 6745,
      "iverse": 6746,
      "▁university": 6747,
      "plete": 6748,
      "▁Bud": 6749,
      "▁sick": 6750,
      "icial": 6751,
      "Phone": 6752,
      "ategories": 6753,
      "▁assets": 6754,
      "▁template": 6755,
      "▁committed": 6756,
      "space": 6757,
      "ignment": 6758,
      "▁plot": 6759,
      "▁aid": 6760,
      "▁greatest": 6761,
      "▁forest": 6762,
      "▁Pri": 6763,
      "je": 6764,
      "▁pray": 6765,
      "ciples": 6766,
      "▁male": 6767,
      "▁Martin": 6768,
      "▁severe": 6769,
      "ymbol": 6770,
      "▁colors": 6771,
      "▁emergency": 6772,
      "icians": 6773,
      "▁impossible": 6774,
      "PP": 6775,
      "▁behavi": 6776,
      "SU": 6777,
      "▁Acad": 6778,
      "alian": 6779,
      "▁locations": 6780,
      "▁investigation": 6781,
      "▁suggested": 6782,
      "options": 6783,
      "▁interpret": 6784,
      "▁scr": 6785,
      "▁mel": 6786,
      "▁surprise": 6787,
      "▁warn": 6788,
      "▁CBD": 6789,
      "▁critic": 6790,
      "▁Jeff": 6791,
      "▁Network": 6792,
      "DB": 6793,
      "partial": 6794,
      "▁facilities": 6795,
      "▁promote": 6796,
      "▁Johnson": 6797,
      "▁sin": 6798,
      "▁prin": 6799,
      "▁hate": 6800,
      "▁Mur": 6801,
      "tau": 6802,
      "▁}}": 6803,
      "ifts": 6804,
      "▁watched": 6805,
      "isters": 6806,
      "▁san": 6807,
      "▁fly": 6808,
      "▁domain": 6809,
      "hetic": 6810,
      "acter": 6811,
      "TY": 6812,
      "service": 6813,
      "▁Ep": 6814,
      "Pr": 6815,
      "▁extends": 6816,
      "▁losing": 6817,
      "SH": 6818,
      "Comm": 6819,
      "▁answers": 6820,
      "▁housing": 6821,
      "▁depends": 6822,
      "▁begins": 6823,
      "andon": 6824,
      "▁anyway": 6825,
      "▁shopping": 6826,
      "context": 6827,
      "▁android": 6828,
      "home": 6829,
      "▁fing": 6830,
      "false": 6831,
      "▁external": 6832,
      "▁believed": 6833,
      "Gener": 6834,
      "igan": 6835,
      "▁recommended": 6836,
      "Stream": 6837,
      "▁defe": 6838,
      "▁Lo": 6839,
      "%%": 6840,
      "ocker": 6841,
      "▁depth": 6842,
      "▁Way": 6843,
      "▁wealth": 6844,
      "▁Pan": 6845,
      "▁Sar": 6846,
      "▁plastic": 6847,
      "ingly": 6848,
      "▁Family": 6849,
      "▁serving": 6850,
      "hered": 6851,
      "master": 6852,
      "▁fro": 6853,
      "▁generated": 6854,
      "▁query": 6855,
      "▁unlike": 6856,
      "burg": 6857,
      "ums": 6858,
      "ned": 6859,
      "▁recovery": 6860,
      "▁ingredients": 6861,
      "▁implementation": 6862,
      "filename": 6863,
      "email": 6864,
      "▁Nav": 6865,
      "▁Yet": 6866,
      "gun": 6867,
      "▁planned": 6868,
      "▁Japanese": 6869,
      "▁Gra": 6870,
      "▁True": 6871,
      "▁Society": 6872,
      "▁chosen": 6873,
      "Wh": 6874,
      "CA": 6875,
      "Che": 6876,
      "ibrary": 6877,
      "▁basically": 6878,
      "▁Object": 6879,
      "▁chat": 6880,
      "fa": 6881,
      "▁Die": 6882,
      "]{": 6883,
      "▁readers": 6884,
      "▁favour": 6885,
      "eder": 6886,
      "▁hundreds": 6887,
      "▁delay": 6888,
      "▁Aud": 6889,
      "dist": 6890,
      "azz": 6891,
      "Call": 6892,
      "▁charges": 6893,
      "▁emphas": 6894,
      "lig": 6895,
      "▁icon": 6896,
      "▁meal": 6897,
      "onym": 6898,
      "▁bike": 6899,
      "Property": 6900,
      "EE": 6901,
      "▁pregn": 6902,
      "▁marriage": 6903,
      "▁float": 6904,
      "▁schol": 6905,
      "crete": 6906,
      "raint": 6907,
      "▁Wall": 6908,
      "▁joy": 6909,
      "../../": 6910,
      "iform": 6911,
      "▁audio": 6912,
      "▁Exec": 6913,
      "onic": 6914,
      "▁Again": 6915,
      "ye": 6916,
      "▁mac": 6917,
      "▁suit": 6918,
      "▁sight": 6919,
      "rical": 6920,
      "▁Creat": 6921,
      "▁upper": 6922,
      "▁iron": 6923,
      "([": 6924,
      "iser": 6925,
      "▁grew": 6926,
      "▁participants": 6927,
      "▁defend": 6928,
      "google": 6929,
      "▁approximately": 6930,
      "▁philos": 6931,
      "oti": 6932,
      "mond": 6933,
      "inem": 6934,
      "▁operator": 6935,
      "IB": 6936,
      "poses": 6937,
      ",'": 6938,
      "words": 6939,
      "Title": 6940,
      "▁Valley": 6941,
      "▁cycle": 6942,
      "▁Jun": 6943,
      "next": 6944,
      "show": 6945,
      "▁::": 6946,
      "ani": 6947,
      "▁chicken": 6948,
      "▁corporate": 6949,
      "▁feedback": 6950,
      "▁kinds": 6951,
      "▁affili": 6952,
      "▁wra": 6953,
      "▁resident": 6954,
      "▁league": 6955,
      "▁processing": 6956,
      "▁excess": 6957,
      "celer": 6958,
      "PU": 6959,
      "▁Charl": 6960,
      "▁assistance": 6961,
      "OST": 6962,
      "▁lights": 6963,
      "▁Whether": 6964,
      "▁Ro": 6965,
      "▁register": 6966,
      "▁native": 6967,
      "non": 6968,
      "ilit": 6969,
      "alysis": 6970,
      "▁mit": 6971,
      "inder": 6972,
      "▁discussed": 6973,
      "ials": 6974,
      "▁extended": 6975,
      "▁incorpor": 6976,
      "▁appearance": 6977,
      "▁provider": 6978,
      "▁Still": 6979,
      "ivered": 6980,
      "ogen": 6981,
      "▁detailed": 6982,
      "TS": 6983,
      "cap": 6984,
      "oute": 6985,
      "▁treated": 6986,
      "▁fee": 6987,
      "…]": 6988,
      "rieved": 6989,
      "▁crew": 6990,
      "▁moments": 6991,
      "One": 6992,
      "door": 6993,
      "igr": 6994,
      "CD": 6995,
      ":\r": 6996,
      "kes": 6997,
      "▁historical": 6998,
      "▁awesome": 6999,
      "▁clinical": 7000,
      "▁Econom": 7001,
      "▁executive": 7002,
      "▁employee": 7003,
      "▁é": 7004,
      "asts": 7005,
      "▁infrastructure": 7006,
      "▁surprised": 7007,
      "▁Code": 7008,
      "▁therapy": 7009,
      "▁extract": 7010,
      "oster": 7011,
      "Yes": 7012,
      "▁Technology": 7013,
      "▁profit": 7014,
      "ttp": 7015,
      "bra": 7016,
      "illy": 7017,
      "▁mail": 7018,
      "▁differences": 7019,
      "▁Master": 7020,
      "▁matters": 7021,
      "ixture": 7022,
      "|\\": 7023,
      "▁distinct": 7024,
      "▁Three": 7025,
      "nam": 7026,
      "▁effectively": 7027,
      "▁Men": 7028,
      "▁depart": 7029,
      "▁seeking": 7030,
      "▁confirmed": 7031,
      "▁observed": 7032,
      "adata": 7033,
      "▁spin": 7034,
      "▁▁▁▁▁▁▁": 7035,
      "▁supporting": 7036,
      "▁movies": 7037,
      "▁Cath": 7038,
      "gress": 7039,
      "▁positions": 7040,
      "llo": 7041,
      "dated": 7042,
      "root": 7043,
      "▁victory": 7044,
      "ingu": 7045,
      "nav": 7046,
      "▁interests": 7047,
      "▁officers": 7048,
      "▁Champions": 7049,
      "response": 7050,
      "Source": 7051,
      "▁occasion": 7052,
      "nov": 7053,
      "▁recorded": 7054,
      "\":\"": 7055,
      "center": 7056,
      "▁adults": 7057,
      "▁storm": 7058,
      "mega": 7059,
      "▁hidden": 7060,
      "▁configuration": 7061,
      "▁planet": 7062,
      "Button": 7063,
      "▁procedure": 7064,
      "IO": 7065,
      "▁Series": 7066,
      "▁enhance": 7067,
      "▁cart": 7068,
      "▁scientific": 7069,
      "▁accepted": 7070,
      "▁encourage": 7071,
      "’.": 7072,
      "▁possibility": 7073,
      "▁errors": 7074,
      "abetes": 7075,
      "▁Try": 7076,
      "Do": 7077,
      "▁pit": 7078,
      "isms": 7079,
      "erry": 7080,
      "▁syn": 7081,
      "▁fees": 7082,
      "CON": 7083,
      "▁Dom": 7084,
      "▁island": 7085,
      "eqref": 7086,
      "ottom": 7087,
      "▁Georg": 7088,
      "nab": 7089,
      "bell": 7090,
      "acking": 7091,
      "BU": 7092,
      "▁contem": 7093,
      "▁Return": 7094,
      "private": 7095,
      "▁drivers": 7096,
      "▁visitors": 7097,
      "▁Mult": 7098,
      "▁tor": 7099,
      "efully": 7100,
      "▁Po": 7101,
      "bles": 7102,
      "Content": 7103,
      "▁commission": 7104,
      "produ": 7105,
      "▁Lim": 7106,
      "▁facility": 7107,
      "ji": 7108,
      ".</": 7109,
      "▁Medical": 7110,
      "▁pil": 7111,
      "▁updates": 7112,
      "card": 7113,
      "▁neck": 7114,
      "cor": 7115,
      "▁skill": 7116,
      "▁lunch": 7117,
      "void": 7118,
      "▁Requ": 7119,
      "▁folks": 7120,
      "}(\\": 7121,
      "ibilities": 7122,
      "▁tea": 7123,
      "した": 7124,
      "tag": 7125,
      "rec": 7126,
      "▁somewhere": 7127,
      "▁ast": 7128,
      "▁humans": 7129,
      "sq": 7130,
      "ownt": 7131,
      "▁Never": 7132,
      "▁television": 7133,
      "▁shouldn": 7134,
      "▁involve": 7135,
      "proof": 7136,
      "▁setup": 7137,
      "omy": 7138,
      "▁Event": 7139,
      "▁Hi": 7140,
      "header": 7141,
      "▁Pass": 7142,
      "Rec": 7143,
      "▁buildings": 7144,
      "▁sorry": 7145,
      "▁Islam": 7146,
      "annels": 7147,
      "▁boys": 7148,
      "▁emotional": 7149,
      "▁equival": 7150,
      "▁extension": 7151,
      "▁Lee": 7152,
      "LC": 7153,
      "▁vul": 7154,
      "▁las": 7155,
      "▁noise": 7156,
      "Select": 7157,
      "▁((": 7158,
      "▁Energy": 7159,
      "▁beauty": 7160,
      "▁authority": 7161,
      "▁Full": 7162,
      "▁circumstances": 7163,
      "▁increases": 7164,
      "▁spr": 7165,
      "▁wave": 7166,
      "afe": 7167,
      "orders": 7168,
      "▁truck": 7169,
      "▁В": 7170,
      "▁Du": 7171,
      "push": 7172,
      "▁typical": 7173,
      "expected": 7174,
      "▁Name": 7175,
      "method": 7176,
      "▁hall": 7177,
      "▁frequently": 7178,
      "▁confident": 7179,
      "▁il": 7180,
      "fortunately": 7181,
      "Go": 7182,
      "▁split": 7183,
      "▁passing": 7184,
      "▁confirm": 7185,
      "ión": 7186,
      "xml": 7187,
      "vec": 7188,
      "after": 7189,
      "▁liked": 7190,
      "figure": 7191,
      "▁lie": 7192,
      "▁professionals": 7193,
      "$\\": 7194,
      "▁protest": 7195,
      "files": 7196,
      "ocument": 7197,
      "▁[…]": 7198,
      "bel": 7199,
      "▁Rest": 7200,
      "▁Hand": 7201,
      "▁obviously": 7202,
      "▁Asia": 7203,
      "▁fairly": 7204,
      "▁constantly": 7205,
      "▁lean": 7206,
      "exec": 7207,
      "▁Current": 7208,
      "dep": 7209,
      "ez": 7210,
      "▁Sometimes": 7211,
      "bing": 7212,
      "▁bodies": 7213,
      "oria": 7214,
      "uing": 7215,
      "ati": 7216,
      "▁Federal": 7217,
      "Head": 7218,
      "▁coast": 7219,
      "▁wearing": 7220,
      "▁valuable": 7221,
      "Version": 7222,
      "uated": 7223,
      "▁Bow": 7224,
      "▁neighborhood": 7225,
      "▁Jones": 7226,
      "ao": 7227,
      "stood": 7228,
      "▁bread": 7229,
      "▁substant": 7230,
      "▁technologies": 7231,
      "▁suddenly": 7232,
      "perties": 7233,
      "ether": 7234,
      "contain": 7235,
      "AY": 7236,
      "▁fantastic": 7237,
      "▁grown": 7238,
      "▁mixed": 7239,
      "▁criminal": 7240,
      "conf": 7241,
      "irms": 7242,
      "▁OF": 7243,
      "▁Sign": 7244,
      "Controller": 7245,
      "▁「": 7246,
      "▁${": 7247,
      "PM": 7248,
      "▁Click": 7249,
      "▁walls": 7250,
      "▁Table": 7251,
      "▁branch": 7252,
      "▁NY": 7253,
      "▁taught": 7254,
      "▁nob": 7255,
      "▁Iran": 7256,
      "sem": 7257,
      "▁disappoint": 7258,
      "uls": 7259,
      "▁entered": 7260,
      "▁Ent": 7261,
      "▁vary": 7262,
      "▁centre": 7263,
      "▁Java": 7264,
      "enter": 7265,
      "▁Head": 7266,
      "range": 7267,
      "ih": 7268,
      "▁glad": 7269,
      "▁supports": 7270,
      "▁strange": 7271,
      "▁household": 7272,
      "msg": 7273,
      "▁chest": 7274,
      "▁Far": 7275,
      "sv": 7276,
      "▁spl": 7277,
      "▁reput": 7278,
      "pc": 7279,
      "lets": 7280,
      "▁appreciate": 7281,
      "▁unable": 7282,
      "vas": 7283,
      "▁intent": 7284,
      "▁Haw": 7285,
      "▁Point": 7286,
      "▁Daniel": 7287,
      "▁Expl": 7288,
      "▁parameter": 7289,
      "▁facing": 7290,
      "▁approved": 7291,
      "▁Soft": 7292,
      "west": 7293,
      "▁shooting": 7294,
      "Run": 7295,
      "▁cheese": 7296,
      "ulous": 7297,
      "▁tiny": 7298,
      "Sp": 7299,
      "▁comprehens": 7300,
      "▁river": 7301,
      "▁liquid": 7302,
      "fix": 7303,
      "mathrm": 7304,
      "RC": 7305,
      "aug": 7306,
      "}/": 7307,
      "▁justice": 7308,
      "▁McC": 7309,
      "▁Prote": 7310,
      "izz": 7311,
      "▁ped": 7312,
      "▁situations": 7313,
      "▁acknow": 7314,
      "iams": 7315,
      "enced": 7316,
      "▁Australian": 7317,
      "▁cooking": 7318,
      "apes": 7319,
      "▁perfectly": 7320,
      "Fil": 7321,
      "Override": 7322,
      "▁essay": 7323,
      "▁Indust": 7324,
      "▁perman": 7325,
      "tion": 7326,
      "▁Young": 7327,
      "▁films": 7328,
      "mem": 7329,
      "▁degrees": 7330,
      "Oh": 7331,
      "▁retire": 7332,
      "▁experiment": 7333,
      "▁Equ": 7334,
      "▁saved": 7335,
      "▁Museum": 7336,
      "▁Aff": 7337,
      "IF": 7338,
      "}$,": 7339,
      "endar": 7340,
      "▁crowd": 7341,
      "▁Should": 7342,
      "▁contrast": 7343,
      "▁networks": 7344,
      "▁AND": 7345,
      "aws": 7346,
      "Ref": 7347,
      "▁tested": 7348,
      "▁len": 7349,
      "▁boat": 7350,
      "reprene": 7351,
      "▁Though": 7352,
      "▁drag": 7353,
      "▁issued": 7354,
      "▁practical": 7355,
      "▁·": 7356,
      "}$.": 7357,
      "ifest": 7358,
      "▁Mean": 7359,
      "▁Know": 7360,
      "orough": 7361,
      "obj": 7362,
      "front": 7363,
      "▁carbon": 7364,
      "▁mal": 7365,
      "▁horse": 7366,
      "▁crazy": 7367,
      "mosp": 7368,
      "▁EU": 7369,
      "cluding": 7370,
      "▁friendly": 7371,
      "▁proceed": 7372,
      "appy": 7373,
      "cf": 7374,
      "▁Four": 7375,
      "▁sufficient": 7376,
      "hop": 7377,
      "▁adm": 7378,
      "anish": 7379,
      "▁abuse": 7380,
      "▁consistent": 7381,
      "▁sequence": 7382,
      "dec": 7383,
      "obs": 7384,
      "▁Having": 7385,
      "▁vital": 7386,
      "▁bull": 7387,
      "pet": 7388,
      "\"),": 7389,
      "▁Arab": 7390,
      "lymp": 7391,
      "▁banks": 7392,
      "▁OR": 7393,
      "▁Spring": 7394,
      "▁village": 7395,
      "▁incident": 7396,
      "sche": 7397,
      "install": 7398,
      "Net": 7399,
      "water": 7400,
      "▁capable": 7401,
      "▁charged": 7402,
      "oston": 7403,
      "▁prompt": 7404,
      "hus": 7405,
      "▁veter": 7406,
      "▁ille": 7407,
      "▁solve": 7408,
      "cat": 7409,
      "▁politics": 7410,
      "▁versions": 7411,
      ")]": 7412,
      "star": 7413,
      "▁rom": 7414,
      "description": 7415,
      "▁smell": 7416,
      "▁tomorrow": 7417,
      "▁Product": 7418,
      "omega": 7419,
      "▁Est": 7420,
      "DF": 7421,
      "▁precise": 7422,
      "▁weapons": 7423,
      "▁candidate": 7424,
      "ucks": 7425,
      "▁Award": 7426,
      "apache": 7427,
      "SL": 7428,
      "Number": 7429,
      "▁authent": 7430,
      "close": 7431,
      "nections": 7432,
      "ped": 7433,
      "▁platforms": 7434,
      "▁Paris": 7435,
      "uan": 7436,
      "arks": 7437,
      "▁keeps": 7438,
      "cluded": 7439,
      "ician": 7440,
      "▁tast": 7441,
      "UE": 7442,
      "▁academic": 7443,
      "▁advoc": 7444,
      "▁experim": 7445,
      "▁Prem": 7446,
      "▁figures": 7447,
      "▁fellow": 7448,
      "▁fra": 7449,
      "Method": 7450,
      "ancer": 7451,
      "▁je": 7452,
      "▁isol": 7453,
      "▁inspired": 7454,
      "road": 7455,
      "▁flag": 7456,
      "▁wheel": 7457,
      "▁successfully": 7458,
      "▁WH": 7459,
      "▁synt": 7460,
      "resents": 7461,
      "▁hoping": 7462,
      "▁Pac": 7463,
      "iration": 7464,
      "▁plate": 7465,
      "xi": 7466,
      "▁acid": 7467,
      "ALL": 7468,
      "▁Live": 7469,
      "▁aside": 7470,
      "▁weren": 7471,
      "▁Turn": 7472,
      "▁industrial": 7473,
      "▁namespace": 7474,
      "▁Contin": 7475,
      "▁reward": 7476,
      "erves": 7477,
      "rick": 7478,
      "▁roof": 7479,
      "▁Mexico": 7480,
      "tab": 7481,
      "tool": 7482,
      "▁discount": 7483,
      "▁authorities": 7484,
      "▁а": 7485,
      "▁chapter": 7486,
      "▁Cost": 7487,
      "anche": 7488,
      "▁crucial": 7489,
      "dict": 7490,
      "▁diss": 7491,
      "▁trick": 7492,
      "▁institutions": 7493,
      "▁Control": 7494,
      "▁feelings": 7495,
      "▁purposes": 7496,
      "▁Steve": 7497,
      "Page": 7498,
      "scale": 7499,
      "▁technique": 7500,
      "▁Sports": 7501,
      "▁commitment": 7502,
      "ln": 7503,
      "number": 7504,
      "▁Supp": 7505,
      "Action": 7506,
      "▁suggests": 7507,
      "▁Middle": 7508,
      "pay": 7509,
      "artifact": 7510,
      "▁spons": 7511,
      "▁stands": 7512,
      "▁Matt": 7513,
      "▁container": 7514,
      "▁lit": 7515,
      "▁hat": 7516,
      "▁tur": 7517,
      "▁iPhone": 7518,
      "▁Ut": 7519,
      "vi": 7520,
      "!)": 7521,
      "▁Perhaps": 7522,
      "▁directory": 7523,
      "▁^": 7524,
      "icity": 7525,
      "▁goods": 7526,
      "▁Charles": 7527,
      "▁teen": 7528,
      "▁stone": 7529,
      "▁phen": 7530,
      "▁decor": 7531,
      "▁dance": 7532,
      "%.": 7533,
      "▁framework": 7534,
      "▁Az": 7535,
      "▁facts": 7536,
      "▁license": 7537,
      "UI": 7538,
      "archers": 7539,
      "cdot": 7540,
      "▁websites": 7541,
      "Rep": 7542,
      "▁spaces": 7543,
      "▁patterns": 7544,
      "▁tail": 7545,
      "▁von": 7546,
      "▁anymore": 7547,
      "▁orders": 7548,
      "▁Coll": 7549,
      "▁publish": 7550,
      "▁Plus": 7551,
      "▁gall": 7552,
      "dim": 7553,
      "▁token": 7554,
      "▁forth": 7555,
      "▁suc": 7556,
      "▁steel": 7557,
      "Em": 7558,
      "▁adult": 7559,
      "▁Wild": 7560,
      "▁okay": 7561,
      "Handler": 7562,
      "Base": 7563,
      "▁bat": 7564,
      "pol": 7565,
      "▁ancient": 7566,
      "▁resolution": 7567,
      "▁tack": 7568,
      "quare": 7569,
      "▁seriously": 7570,
      "▁scheme": 7571,
      "▁delivered": 7572,
      "▁Lar": 7573,
      "inch": 7574,
      "▁conducted": 7575,
      "iger": 7576,
      "▁competitive": 7577,
      "▁illustr": 7578,
      "orters": 7579,
      "▁Dar": 7580,
      "▁ven": 7581,
      "params": 7582,
      "▁Digital": 7583,
      "▁talked": 7584,
      "▁raw": 7585,
      "NS": 7586,
      "onna": 7587,
      "ipal": 7588,
      "▁somewhat": 7589,
      "▁normally": 7590,
      "orial": 7591,
      "▁Gar": 7592,
      "▁variables": 7593,
      "▁doors": 7594,
      "▁legs": 7595,
      "▁promise": 7596,
      "float": 7597,
      "▁twenty": 7598,
      "unit": 7599,
      "BI": 7600,
      "▁Wel": 7601,
      "lections": 7602,
      "▁bear": 7603,
      "▁Figure": 7604,
      "▁reform": 7605,
      "▁AT": 7606,
      "redit": 7607,
      "atre": 7608,
      "parse": 7609,
      "▁listening": 7610,
      "ouch": 7611,
      "▁risks": 7612,
      "▁maintenance": 7613,
      "че": 7614,
      "▁await": 7615,
      "▁renew": 7616,
      "……": 7617,
      "して": 7618,
      "▁recognized": 7619,
      "▁suspect": 7620,
      "▁tech": 7621,
      "vy": 7622,
      "Builder": 7623,
      "▁formed": 7624,
      "▁shit": 7625,
      "ifies": 7626,
      "▁Uk": 7627,
      "▁reaction": 7628,
      "isc": 7629,
      "▁Roman": 7630,
      "▁surgery": 7631,
      "fraid": 7632,
      "▁narrow": 7633,
      "▁debate": 7634,
      "▁username": 7635,
      "▁Penn": 7636,
      "▁judge": 7637,
      "▁Boy": 7638,
      "▁Mic": 7639,
      "Ps": 7640,
      "▁Put": 7641,
      "▁comparison": 7642,
      "commit": 7643,
      "pers": 7644,
      "▁bless": 7645,
      "▁Angeles": 7646,
      "▁advertising": 7647,
      "▁recall": 7648,
      "ournament": 7649,
      "aturally": 7650,
      "▁linked": 7651,
      "▁Walk": 7652,
      "BS": 7653,
      "▁clothes": 7654,
      "▁au": 7655,
      "▁repair": 7656,
      "▁solar": 7657,
      "▁Win": 7658,
      "▁rose": 7659,
      "▁vast": 7660,
      "Token": 7661,
      "▁Andrew": 7662,
      "▁era": 7663,
      "▁honor": 7664,
      "▁afraid": 7665,
      "game": 7666,
      "▁challenging": 7667,
      "nbsp": 7668,
      "▁receiving": 7669,
      "olec": 7670,
      "▁carefully": 7671,
      "common": 7672,
      "▁subsequ": 7673,
      "▁accurate": 7674,
      "▁houses": 7675,
      "▁resulting": 7676,
      "ECT": 7677,
      "▁flo": 7678,
      "▁recognize": 7679,
      "▁courses": 7680,
      "▁ans": 7681,
      "▁existence": 7682,
      "▁sle": 7683,
      "ци": 7684,
      "▁Ken": 7685,
      "▁Update": 7686,
      "▁researchers": 7687,
      "Component": 7688,
      "▁furn": 7689,
      "▁browser": 7690,
      "▁Ari": 7691,
      "▁alive": 7692,
      "module": 7693,
      "ESS": 7694,
      "▁efficiency": 7695,
      "▁younger": 7696,
      "EW": 7697,
      "▁Williams": 7698,
      "▁providers": 7699,
      "▁AR": 7700,
      "INT": 7701,
      "▁Jackson": 7702,
      "icing": 7703,
      "▁regional": 7704,
      "▁mainly": 7705,
      "▁tab": 7706,
      "click": 7707,
      "lang": 7708,
      "▁matches": 7709,
      "▁stuck": 7710,
      "▁swim": 7711,
      "▁thin": 7712,
      "▁broke": 7713,
      "▁regularly": 7714,
      "Script": 7715,
      "▁beer": 7716,
      "▁Canadian": 7717,
      "▁Van": 7718,
      "▁Kar": 7719,
      "ultural": 7720,
      "buf": 7721,
      "▁moves": 7722,
      "▁repeated": 7723,
      "lights": 7724,
      "▁nic": 7725,
      "▁Prom": 7726,
      "▁opposite": 7727,
      "filter": 7728,
      "▁murder": 7729,
      "▁render": 7730,
      "▁democr": 7731,
      "▁millions": 7732,
      "chain": 7733,
      "▁authors": 7734,
      "▁narr": 7735,
      "arian": 7736,
      "▁Hor": 7737,
      "spe": 7738,
      "▁routine": 7739,
      "▁spiritual": 7740,
      "▁vulner": 7741,
      "▁за": 7742,
      "▁Tour": 7743,
      "jo": 7744,
      "store": 7745,
      "▁Olymp": 7746,
      "iders": 7747,
      "▁engineering": 7748,
      "▁Video": 7749,
      "ensor": 7750,
      "iot": 7751,
      "▁respectively": 7752,
      "▁sauce": 7753,
      "ican": 7754,
      "▁talent": 7755,
      "umin": 7756,
      "▁nuclear": 7757,
      "▁pointed": 7758,
      "Options": 7759,
      "lements": 7760,
      "IST": 7761,
      "enger": 7762,
      "teen": 7763,
      "otype": 7764,
      "ographic": 7765,
      "▁county": 7766,
      "▁anxiety": 7767,
      "▁Cast": 7768,
      "▁Unfortunately": 7769,
      "▁brands": 7770,
      "ograp": 7771,
      "▁candidates": 7772,
      "▁Hon": 7773,
      "DS": 7774,
      "ми": 7775,
      "▁conflict": 7776,
      "▁flood": 7777,
      "ali": 7778,
      "▁dealing": 7779,
      "▁pump": 7780,
      "▁represents": 7781,
      "Url": 7782,
      "▁hasn": 7783,
      "Per": 7784,
      "End": 7785,
      "▁Ira": 7786,
      "▁Virginia": 7787,
      "▁Night": 7788,
      "▁remained": 7789,
      "▁incredible": 7790,
      "ophy": 7791,
      "▁bowl": 7792,
      "ASS": 7793,
      "▁Source": 7794,
      "▁zone": 7795,
      "▁alert": 7796,
      "▁insert": 7797,
      "▁dish": 7798,
      "▁Pak": 7799,
      "isted": 7800,
      "acked": 7801,
      "▁conscious": 7802,
      "▁Ell": 7803,
      "▁intelligence": 7804,
      "Ext": 7805,
      "▁beach": 7806,
      "erg": 7807,
      "▁cutting": 7808,
      "▁Local": 7809,
      "Start": 7810,
      "▁anticip": 7811,
      "▁reject": 7812,
      "▁Bell": 7813,
      "▁Conference": 7814,
      "▁replaced": 7815,
      "▁clar": 7816,
      "▁Manager": 7817,
      "▁Non": 7818,
      "▁protocol": 7819,
      "▁yards": 7820,
      "▁Boston": 7821,
      "allow": 7822,
      "▁shoulder": 7823,
      "▁Muslim": 7824,
      "display": 7825,
      "’,": 7826,
      "strong": 7827,
      "________": 7828,
      "▁ordered": 7829,
      "▁Hard": 7830,
      "▁fingers": 7831,
      "▁Army": 7832,
      "ira": 7833,
      "▁specified": 7834,
      "▁vert": 7835,
      "▁adop": 7836,
      "▁basket": 7837,
      "bled": 7838,
      "river": 7839,
      "▁explan": 7840,
      "▁Cross": 7841,
      "▁react": 7842,
      "▁remark": 7843,
      "▁improvement": 7844,
      "▁administr": 7845,
      "▁args": 7846,
      "▁inner": 7847,
      "ATION": 7848,
      "▁healthcare": 7849,
      "▁relief": 7850,
      "▁struggle": 7851,
      "site": 7852,
      "▁Sn": 7853,
      "▁Cook": 7854,
      "▁seed": 7855,
      "▁{}": 7856,
      "iden": 7857,
      "▁domestic": 7858,
      "▁до": 7859,
      "▁los": 7860,
      "▁topics": 7861,
      "▁URL": 7862,
      "▁awareness": 7863,
      "▁electronic": 7864,
      "▁atmosp": 7865,
      "▁mand": 7866,
      "▁monthly": 7867,
      "▁boolean": 7868,
      "▁emb": 7869,
      "▁hyper": 7870,
      "▁Centre": 7871,
      "▁Ha": 7872,
      "iana": 7873,
      "tex": 7874,
      "▁bell": 7875,
      "▁penal": 7876,
      "▁guests": 7877,
      "nce": 7878,
      "rich": 7879,
      "Well": 7880,
      "lled": 7881,
      "▁yellow": 7882,
      "▁Es": 7883,
      "▁ON": 7884,
      "Instance": 7885,
      "▁mountain": 7886,
      "een": 7887,
      "▁evil": 7888,
      "iously": 7889,
      "▁decent": 7890,
      "Null": 7891,
      "ptr": 7892,
      "▁loop": 7893,
      "asters": 7894,
      "▁Orig": 7895,
      "pool": 7896,
      "▁strict": 7897,
      "anguages": 7898,
      "▁vit": 7899,
      "roke": 7900,
      "▁Bitcoin": 7901,
      "▁hook": 7902,
      "forcement": 7903,
      "▁NFL": 7904,
      "▁reader": 7905,
      "?’": 7906,
      "▁elev": 7907,
      "▁DC": 7908,
      "ру": 7909,
      "▁tall": 7910,
      "rooms": 7911,
      "▁subscri": 7912,
      "▁ru": 7913,
      "mut": 7914,
      "▁stim": 7915,
      "born": 7916,
      "package": 7917,
      "▁Mrs": 7918,
      "▁newsp": 7919,
      "▁literally": 7920,
      "▁compare": 7921,
      "docs": 7922,
      "▁necessarily": 7923,
      "▁Jewish": 7924,
      "▁causing": 7925,
      "umes": 7926,
      "▁HD": 7927,
      "attr": 7928,
      "▁wedding": 7929,
      "▁reporting": 7930,
      "MP": 7931,
      "▁knock": 7932,
      "▁Record": 7933,
      "amental": 7934,
      "▁Adv": 7935,
      "ない": 7936,
      "▁trail": 7937,
      "▁virus": 7938,
      "▁Text": 7939,
      "▁parking": 7940,
      "▁Pop": 7941,
      "▁silver": 7942,
      "iture": 7943,
      "sen": 7944,
      "▁![": 7945,
      "ско": 7946,
      "▁frag": 7947,
      "▁resistance": 7948,
      "▁Games": 7949,
      "▁Price": 7950,
      "agues": 7951,
      "▁ultimately": 7952,
      "▁participate": 7953,
      "▁creates": 7954,
      "▁dating": 7955,
      "join": 7956,
      "▁Field": 7957,
      "▁Mid": 7958,
      "▁expressed": 7959,
      "▁Has": 7960,
      "▁'',": 7961,
      "▁dynamic": 7962,
      "riting": 7963,
      "astern": 7964,
      "▁personally": 7965,
      "▁edition": 7966,
      "▁Children": 7967,
      "▁claimed": 7968,
      "▁vo": 7969,
      "▁Kn": 7970,
      "▁phr": 7971,
      "▁athlet": 7972,
      "▁portion": 7973,
      "▁})": 7974,
      "▁Phot": 7975,
      "XX": 7976,
      "AV": 7977,
      "▁Fort": 7978,
      "▁Retrieved": 7979,
      "▁Instagram": 7980,
      "▁statements": 7981,
      "▁plane": 7982,
      "▁matrix": 7983,
      "▁Italian": 7984,
      "++)": 7985,
      "▁Model": 7986,
      "▁letters": 7987,
      "▁decade": 7988,
      "▁Corpor": 7989,
      "▁clock": 7990,
      "bu": 7991,
      "▁Ap": 7992,
      "▁cooper": 7993,
      "▁tip": 7994,
      "▁Ram": 7995,
      "▁adds": 7996,
      "liament": 7997,
      "▁Ol": 7998,
      "▁committee": 7999,
      "'],": 8000,
      "GL": 8001,
      "▁Pot": 8002,
      "▁Little": 8003,
      "▁plugin": 8004,
      "▁Senate": 8005,
      "BN": 8006,
      "Create": 8007,
      "▁compens": 8008,
      "gle": 8009,
      "▁Tri": 8010,
      "▁upcoming": 8011,
      "▁arguments": 8012,
      "▁muscle": 8013,
      "auth": 8014,
      "▁deals": 8015,
      "acket": 8016,
      "Delta": 8017,
      "▁AL": 8018,
      "▁chocolate": 8019,
      "▁reasonable": 8020,
      "▁ongoing": 8021,
      "ito": 8022,
      "ando": 8023,
      "▁overw": 8024,
      "▁educational": 8025,
      "▁Royal": 8026,
      "▁payments": 8027,
      "▁Jac": 8028,
      "folio": 8029,
      "gypt": 8030,
      "▁Access": 8031,
      "cue": 8032,
      "sell": 8033,
      "▁stable": 8034,
      "jection": 8035,
      "▁ticket": 8036,
      "ords": 8037,
      "▁invent": 8038,
      "▁gear": 8039,
      "▁institution": 8040,
      "▁employment": 8041,
      "▁covers": 8042,
      "▁Beach": 8043,
      "▁warning": 8044,
      "▁understood": 8045,
      "▁Ty": 8046,
      "▁forgot": 8047,
      "ве": 8048,
      "Default": 8049,
      "▁rooms": 8050,
      "OK": 8051,
      "oga": 8052,
      "older": 8053,
      "▁habit": 8054,
      "▁worldwide": 8055,
      "▁suffering": 8056,
      "▁west": 8057,
      "iano": 8058,
      "URL": 8059,
      "▁surrounding": 8060,
      "]);": 8061,
      "Check": 8062,
      "▁faces": 8063,
      "▁usage": 8064,
      "▁agencies": 8065,
      "▁Prime": 8066,
      "▁TR": 8067,
      "▁gender": 8068,
      "▁Spanish": 8069,
      "▁religion": 8070,
      "▁AS": 8071,
      "▁regions": 8072,
      "war": 8073,
      "hire": 8074,
      "▁occurred": 8075,
      "PT": 8076,
      "ettings": 8077,
      "▁scope": 8078,
      "▁territ": 8079,
      "▁winner": 8080,
      "▁closely": 8081,
      "▁negoti": 8082,
      "▁originally": 8083,
      "uid": 8084,
      "▁ble": 8085,
      "▁soil": 8086,
      "▁neither": 8087,
      "▁pushed": 8088,
      "▁М": 8089,
      "inking": 8090,
      "athan": 8091,
      "▁estimated": 8092,
      "▁Wat": 8093,
      "▁Phys": 8094,
      "▁Scot": 8095,
      "issions": 8096,
      "▁keys": 8097,
      "▁entr": 8098,
      "▁instructions": 8099,
      "▁Sup": 8100,
      "▁suitable": 8101,
      "ador": 8102,
      "▁Festival": 8103,
      "artifactId": 8104,
      "▁fram": 8105,
      "Tube": 8106,
      "▁escape": 8107,
      "sor": 8108,
      "loc": 8109,
      "ME": 8110,
      "################": 8111,
      "utch": 8112,
      "▁talks": 8113,
      "vider": 8114,
      "▁dad": 8115,
      "pire": 8116,
      "▁potentially": 8117,
      "▁colour": 8118,
      "images": 8119,
      "▁OS": 8120,
      "vin": 8121,
      "って": 8122,
      "▁SE": 8123,
      "▁Ess": 8124,
      "▁sending": 8125,
      "▁expansion": 8126,
      "osc": 8127,
      "▁impressive": 8128,
      "▁latter": 8129,
      "▁Was": 8130,
      "▁grass": 8131,
      "▁illness": 8132,
      "▁Carolina": 8133,
      "▁Rom": 8134,
      "▁teeth": 8135,
      "▁scheduled": 8136,
      "▁scored": 8137,
      "▁enemy": 8138,
      "estyle": 8139,
      "▁registered": 8140,
      "▁requests": 8141,
      "wered": 8142,
      "zil": 8143,
      "TE": 8144,
      "document": 8145,
      "]:": 8146,
      "▁injuries": 8147,
      "static": 8148,
      "▁Iraq": 8149,
      "CS": 8150,
      "Det": 8151,
      "rend": 8152,
      "▁rail": 8153,
      "▁pra": 8154,
      "reland": 8155,
      "▁rising": 8156,
      "▁unknown": 8157,
      "▁fault": 8158,
      "▁expectations": 8159,
      "ampion": 8160,
      "▁medicine": 8161,
      "▁gaming": 8162,
      "imer": 8163,
      "▁Method": 8164,
      "tilde": 8165,
      "ABLE": 8166,
      "Load": 8167,
      "▁Lab": 8168,
      "token": 8169,
      "pository": 8170,
      "▁till": 8171,
      "pa": 8172,
      "▁taxes": 8173,
      "▁blocks": 8174,
      "▁fasc": 8175,
      "▁boss": 8176,
      "▁manufacturing": 8177,
      "high": 8178,
      "▁owned": 8179,
      "▁License": 8180,
      "orph": 8181,
      ".;": 8182,
      "icket": 8183,
      "▁sole": 8184,
      "ificate": 8185,
      "osa": 8186,
      "▁reduction": 8187,
      "▁forever": 8188,
      "▁Son": 8189,
      "missions": 8190,
      "CR": 8191,
      "▁loans": 8192,
      "▁Hospital": 8193,
      "▁tickets": 8194,
      "▁tonight": 8195,
      "▁Low": 8196,
      "▁pour": 8197,
      "▁deploy": 8198,
      "▁hole": 8199,
      "▁accommod": 8200,
      "▁prospect": 8201,
      "▁CA": 8202,
      "▁blow": 8203,
      "▁roles": 8204,
      "▁operate": 8205,
      "▁Hun": 8206,
      "▁Comput": 8207,
      "▁possess": 8208,
      "PN": 8209,
      "cp": 8210,
      "HS": 8211,
      "▁wet": 8212,
      "▁chose": 8213,
      "▁Section": 8214,
      "▁contribute": 8215,
      "eries": 8216,
      "ben": 8217,
      "▁oppon": 8218,
      "irtual": 8219,
      "ceived": 8220,
      "make": 8221,
      "allel": 8222,
      "TA": 8223,
      "▁Fair": 8224,
      "command": 8225,
      "▁referred": 8226,
      "▁kiss": 8227,
      "▁К": 8228,
      "▁Tay": 8229,
      "▁Connect": 8230,
      "iral": 8231,
      "▁streets": 8232,
      "▁delicious": 8233,
      "upid": 8234,
      "mult": 8235,
      "▁earned": 8236,
      "▁alleged": 8237,
      "faces": 8238,
      "▁reliable": 8239,
      "▁hits": 8240,
      "omic": 8241,
      "uling": 8242,
      "▁hardware": 8243,
      "▁harder": 8244,
      "Hel": 8245,
      "▁Line": 8246,
      "▁shell": 8247,
      "から": 8248,
      "control": 8249,
      "▁finger": 8250,
      "▁lapt": 8251,
      "▁exposure": 8252,
      "uous": 8253,
      "▁Foot": 8254,
      "Are": 8255,
      "sect": 8256,
      "▁Library": 8257,
      "ko": 8258,
      "▁para": 8259,
      "▁ease": 8260,
      "▁funny": 8261,
      "▁achieved": 8262,
      "gas": 8263,
      "▁apparently": 8264,
      "rot": 8265,
      "oked": 8266,
      "▁Cho": 8267,
      "uine": 8268,
      "aud": 8269,
      "▁equivalent": 8270,
      "▁Trust": 8271,
      "▁comprehensive": 8272,
      "ля": 8273,
      "names": 8274,
      "▁appeal": 8275,
      "▁breaking": 8276,
      "▁Consider": 8277,
      "angers": 8278,
      "▁Environment": 8279,
      "▁premium": 8280,
      "▁Justice": 8281,
      "$(": 8282,
      "ppers": 8283,
      "▁machines": 8284,
      "berry": 8285,
      "▁immediate": 8286,
      "Server": 8287,
      "▁expertise": 8288,
      "lyn": 8289,
      "▁Republican": 8290,
      "▁containing": 8291,
      "▁studio": 8292,
      "▁meetings": 8293,
      "▁Place": 8294,
      "groupId": 8295,
      "▁purchased": 8296,
      "▁AI": 8297,
      "▁bridge": 8298,
      "▁succeed": 8299,
      "▁increasingly": 8300,
      "column": 8301,
      "▁visible": 8302,
      "scope": 8303,
      "Me": 8304,
      "▁gotten": 8305,
      "ras": 8306,
      "▁agents": 8307,
      "▁ratio": 8308,
      "anna": 8309,
      "fall": 8310,
      "empty": 8311,
      "▁champions": 8312,
      "▁structures": 8313,
      "▁(\"": 8314,
      "▁flash": 8315,
      "▁stead": 8316,
      "▁musical": 8317,
      "▁loud": 8318,
      "▁evolution": 8319,
      "▁pip": 8320,
      "▁samples": 8321,
      "closed": 8322,
      "▁Nick": 8323,
      "▁Being": 8324,
      "▁percentage": 8325,
      "▁MS": 8326,
      "ть": 8327,
      "▁Saf": 8328,
      "▁dialog": 8329,
      "merce": 8330,
      "▁likes": 8331,
      "▁subs": 8332,
      "▁extent": 8333,
      "▁throws": 8334,
      "▁transaction": 8335,
      "▁uncertain": 8336,
      "▁Page": 8337,
      "▁assessment": 8338,
      "▁Spirit": 8339,
      "▁Administ": 8340,
      "▁drinking": 8341,
      "lder": 8342,
      "kg": 8343,
      "adium": 8344,
      "▁moder": 8345,
      "нов": 8346,
      "cling": 8347,
      "▁gent": 8348,
      "▁nearby": 8349,
      "phy": 8350,
      "▁Such": 8351,
      "▁careful": 8352,
      "aved": 8353,
      "▁whenever": 8354,
      "▁bunch": 8355,
      "▁interact": 8356,
      "▁capture": 8357,
      "▁diabetes": 8358,
      "▁delete": 8359,
      "▁mask": 8360,
      "▁cos": 8361,
      "▁Kim": 8362,
      "onav": 8363,
      "posed": 8364,
      "▁EX": 8365,
      "▁eggs": 8366,
      "▁bench": 8367,
      "▁limits": 8368,
      "ifer": 8369,
      "▁Ref": 8370,
      "▁Li": 8371,
      "▁widely": 8372,
      "▁absor": 8373,
      "▁password": 8374,
      "▁delight": 8375,
      "▁Ireland": 8376,
      "bd": 8377,
      "▁foundation": 8378,
      "▁falling": 8379,
      "▁hung": 8380,
      "MC": 8381,
      "BO": 8382,
      "▁thro": 8383,
      "▁surprising": 8384,
      "Equal": 8385,
      "▁scan": 8386,
      "▁presentation": 8387,
      "▁primarily": 8388,
      "▁uint": 8389,
      "away": 8390,
      "oup": 8391,
      "frame": 8392,
      "▁hide": 8393,
      "▁Without": 8394,
      "▁Pakistan": 8395,
      "▁drawing": 8396,
      "▁PS": 8397,
      "▁campus": 8398,
      "ounce": 8399,
      "▁Ray": 8400,
      "stone": 8401,
      "▁enthus": 8402,
      "send": 8403,
      "aron": 8404,
      "▁Arts": 8405,
      "uint": 8406,
      "▁army": 8407,
      "oral": 8408,
      "▁developers": 8409,
      "AND": 8410,
      "▁lies": 8411,
      ")))": 8412,
      "aints": 8413,
      "bered": 8414,
      "▁diverse": 8415,
      "rat": 8416,
      "▁Bible": 8417,
      "ORD": 8418,
      "Cur": 8419,
      "▁acts": 8420,
      "▁breakfast": 8421,
      "ogether": 8422,
      "sters": 8423,
      "▁casino": 8424,
      "▁exit": 8425,
      "▁monitoring": 8426,
      "▁heads": 8427,
      "▁strike": 8428,
      "////////////////": 8429,
      "Off": 8430,
      "▁tank": 8431,
      "▁extensive": 8432,
      "▁largely": 8433,
      "▁contest": 8434,
      "▁ho": 8435,
      "():": 8436,
      "apse": 8437,
      "▁chart": 8438,
      "▁acting": 8439,
      "▁acceler": 8440,
      "DP": 8441,
      "bound": 8442,
      "▁Father": 8443,
      "ulty": 8444,
      "▁Italy": 8445,
      "▁lux": 8446,
      "agger": 8447,
      "types": 8448,
      "▁stronger": 8449,
      "ila": 8450,
      "ORT": 8451,
      "▁YouTube": 8452,
      "oker": 8453,
      "▁informed": 8454,
      "world": 8455,
      "▁downt": 8456,
      "pop": 8457,
      "▁Henry": 8458,
      "Ret": 8459,
      "▁thousand": 8460,
      "oured": 8461,
      "ULT": 8462,
      "holders": 8463,
      "▁Egypt": 8464,
      "▁EN": 8465,
      "entry": 8466,
      "edge": 8467,
      "▁cabin": 8468,
      "Why": 8469,
      "▁channels": 8470,
      "▁Pack": 8471,
      "▁bottle": 8472,
      "▁partnership": 8473,
      "▁riv": 8474,
      "aded": 8475,
      "▁pitch": 8476,
      "▁engage": 8477,
      "ools": 8478,
      "▁somehow": 8479,
      "▁dust": 8480,
      "▁grade": 8481,
      "▁Accept": 8482,
      "▁documentation": 8483,
      "vo": 8484,
      "▁explains": 8485,
      "▁diam": 8486,
      "▁featured": 8487,
      "▁division": 8488,
      "▁hang": 8489,
      "thm": 8490,
      "▁rig": 8491,
      "▁organic": 8492,
      "▁Liber": 8493,
      "▁checked": 8494,
      "▁Joseph": 8495,
      "▁stored": 8496,
      "▁programming": 8497,
      "chi": 8498,
      "ogy": 8499,
      "▁Space": 8500,
      "▁Map": 8501,
      "▁flour": 8502,
      "▁um": 8503,
      "▁distributed": 8504,
      "▁Fix": 8505,
      "▁innovation": 8506,
      "bridge": 8507,
      "….": 8508,
      "lar": 8509,
      "▁Academy": 8510,
      "▁correctly": 8511,
      "ansas": 8512,
      "▁CON": 8513,
      "ainer": 8514,
      "▁urban": 8515,
      "▁believes": 8516,
      "▁blank": 8517,
      "▁subt": 8518,
      "▁stretch": 8519,
      "▁stun": 8520,
      "vision": 8521,
      "▁fo": 8522,
      "kt": 8523,
      "▁guitar": 8524,
      "▁Dam": 8525,
      "▁ma": 8526,
      "▁connections": 8527,
      "▁literature": 8528,
      "▁accessible": 8529,
      "▁\"/": 8530,
      "▁Fun": 8531,
      "▁installation": 8532,
      "Bar": 8533,
      "▁formal": 8534,
      "▁Michigan": 8535,
      "▁Ryan": 8536,
      "inity": 8537,
      "▁Search": 8538,
      "▁Moreover": 8539,
      "▁headed": 8540,
      "▁convert": 8541,
      "▁entreprene": 8542,
      "split": 8543,
      "▁involves": 8544,
      "▁fulf": 8545,
      "▁innovative": 8546,
      "container": 8547,
      "▁legislation": 8548,
      "де": 8549,
      "Factory": 8550,
      "!!!": 8551,
      "▁Ron": 8552,
      "▁Cov": 8553,
      "wing": 8554,
      "achine": 8555,
      "fire": 8556,
      "iable": 8557,
      "▁union": 8558,
      "Sty": 8559,
      "▁instrument": 8560,
      "▁finds": 8561,
      "▁Britain": 8562,
      "kit": 8563,
      "▁controls": 8564,
      ")$.": 8565,
      "▁Additionally": 8566,
      "▁Sher": 8567,
      "%,": 8568,
      "▁tone": 8569,
      "endif": 8570,
      "\\\"": 8571,
      "▁Rec": 8572,
      "▁pounds": 8573,
      "▁circle": 8574,
      "Command": 8575,
      "▁Image": 8576,
      "aset": 8577,
      "eding": 8578,
      "する": 8579,
      "▁scholars": 8580,
      "itan": 8581,
      "▁attached": 8582,
      "cha": 8583,
      "ran": 8584,
      "del": 8585,
      "▁nurs": 8586,
      "▁sessions": 8587,
      "umps": 8588,
      "ruption": 8589,
      "▁unw": 8590,
      ":\"": 8591,
      "▁overwhel": 8592,
      "▁Dou": 8593,
      "▁stom": 8594,
      "▁corresponding": 8595,
      "aping": 8596,
      "▁giant": 8597,
      "clear": 8598,
      "ART": 8599,
      "▁photograph": 8600,
      "▁amounts": 8601,
      "▁OK": 8602,
      "di": 8603,
      "▁stake": 8604,
      "tx": 8605,
      "▁east": 8606,
      "found": 8607,
      "inent": 8608,
      "▁Professor": 8609,
      "efined": 8610,
      "iences": 8611,
      "▁regardless": 8612,
      "▁trained": 8613,
      "▁recording": 8614,
      "▁outcome": 8615,
      "ATH": 8616,
      "▁drawn": 8617,
      "▁MA": 8618,
      "ERR": 8619,
      "step": 8620,
      "▁Would": 8621,
      "onavirus": 8622,
      "▁Disney": 8623,
      "vol": 8624,
      "asant": 8625,
      "▁spell": 8626,
      "▁serves": 8627,
      "ixel": 8628,
      "itage": 8629,
      "Listener": 8630,
      "rog": 8631,
      "uns": 8632,
      "▁Base": 8633,
      "▁terr": 8634,
      "ima": 8635,
      "▁tracks": 8636,
      "sqrt": 8637,
      "▁FR": 8638,
      "▁alongside": 8639,
      "istent": 8640,
      "▁rating": 8641,
      "▁loaded": 8642,
      "▁chances": 8643,
      "▁powers": 8644,
      "▁padding": 8645,
      "Mat": 8646,
      "▁entertainment": 8647,
      "month": 8648,
      "по": 8649,
      "▁Capt": 8650,
      "▁guidelines": 8651,
      "uer": 8652,
      "enth": 8653,
      "▁destination": 8654,
      "▁agric": 8655,
      "osit": 8656,
      "▁puts": 8657,
      "normal": 8658,
      "▁guidance": 8659,
      "▁visiting": 8660,
      "▁Chair": 8661,
      "▁Photo": 8662,
      "▁duty": 8663,
      "▁sheet": 8664,
      "▁killing": 8665,
      "▁apartment": 8666,
      "▁recover": 8667,
      "ni": 8668,
      "▁Him": 8669,
      "▁trigger": 8670,
      "nic": 8671,
      "rr": 8672,
      "▁Gall": 8673,
      "keys": 8674,
      "▁fundamental": 8675,
      "tics": 8676,
      "▁incredibly": 8677,
      "▁Force": 8678,
      "▁Francisco": 8679,
      "▁tired": 8680,
      "remove": 8681,
      "▁>=": 8682,
      "▁consumption": 8683,
      "▁sharp": 8684,
      "stars": 8685,
      "▁np": 8686,
      "sign": 8687,
      "▁Cloud": 8688,
      "▁sentence": 8689,
      "▁supplies": 8690,
      "▁smoke": 8691,
      "AGE": 8692,
      "txt": 8693,
      "sql": 8694,
      "▁weird": 8695,
      "▁occurs": 8696,
      "▁concert": 8697,
      "▁..": 8698,
      "▁shots": 8699,
      "▁vend": 8700,
      "▁pace": 8701,
      "▁complicated": 8702,
      ")=": 8703,
      "stra": 8704,
      "Column": 8705,
      "▁Ly": 8706,
      "▁categories": 8707,
      "▁Case": 8708,
      "ervation": 8709,
      "▁lucky": 8710,
      "▁una": 8711,
      "▁Sus": 8712,
      "▁genuine": 8713,
      "▁indu": 8714,
      "▁Action": 8715,
      "iffe": 8716,
      "▁rein": 8717,
      "▁merely": 8718,
      "ikes": 8719,
      "▁rear": 8720,
      "amber": 8721,
      "▁restaurants": 8722,
      "igate": 8723,
      "anted": 8724,
      ">,": 8725,
      "▁guest": 8726,
      "▁cleaning": 8727,
      "▁designs": 8728,
      "hemat": 8729,
      "▁Executive": 8730,
      "▁folder": 8731,
      "Tem": 8732,
      "▁colon": 8733,
      "▁algorithm": 8734,
      "tml": 8735,
      "}[": 8736,
      "▁segment": 8737,
      "▁everywhere": 8738,
      "▁elig": 8739,
      "▁uniform": 8740,
      "uct": 8741,
      "▁Georgia": 8742,
      "▁Ohio": 8743,
      "▁Catholic": 8744,
      "▁implemented": 8745,
      "Aut": 8746,
      "▁illegal": 8747,
      "▁meals": 8748,
      "▁improving": 8749,
      "haust": 8750,
      "oded": 8751,
      "▁lad": 8752,
      "[:": 8753,
      "enda": 8754,
      "▁regulations": 8755,
      "ws": 8756,
      "▁Hom": 8757,
      "▁iter": 8758,
      "ensus": 8759,
      "MT": 8760,
      "▁priority": 8761,
      "entity": 8762,
      "▁embr": 8763,
      "▁returning": 8764,
      "▁frequency": 8765,
      "▁coc": 8766,
      "▁indicate": 8767,
      "▁prime": 8768,
      "ante": 8769,
      "▁advis": 8770,
      "▁asset": 8771,
      "▁Guide": 8772,
      "▁affordable": 8773,
      "▁commonly": 8774,
      "organ": 8775,
      "raine": 8776,
      "▁searching": 8777,
      "cut": 8778,
      "▁json": 8779,
      "▁Sat": 8780,
      "▁ol": 8781,
      "▁Stan": 8782,
      "None": 8783,
      "obby": 8784,
      "▁sustainable": 8785,
      "▁directed": 8786,
      "▁victims": 8787,
      "▁desired": 8788,
      "▁thorough": 8789,
      "▁Perform": 8790,
      "▁discipl": 8791,
      "HP": 8792,
      "▁collaboration": 8793,
      "▁Ra": 8794,
      "▁Rod": 8795,
      "▁landscape": 8796,
      "▁Columb": 8797,
      "▁collected": 8798,
      "property": 8799,
      "▁Remember": 8800,
      "▁Santa": 8801,
      "▁shoes": 8802,
      "▁carrying": 8803,
      "anes": 8804,
      "Entity": 8805,
      "▁lovely": 8806,
      "▁Southern": 8807,
      "jpg": 8808,
      "ampl": 8809,
      "▁painting": 8810,
      "▁relation": 8811,
      "▁lips": 8812,
      "Big": 8813,
      "▁driven": 8814,
      "Output": 8815,
      "▁ending": 8816,
      "▁Software": 8817,
      "▁combat": 8818,
      "▁celebrate": 8819,
      "▁Daily": 8820,
      "▁sees": 8821,
      "▁Number": 8822,
      "▁Division": 8823,
      "▁consequences": 8824,
      "yes": 8825,
      "DR": 8826,
      "dt": 8827,
      "Http": 8828,
      "ilst": 8829,
      "inton": 8830,
      "imize": 8831,
      "elly": 8832,
      "ernel": 8833,
      "▁Rose": 8834,
      "▁faced": 8835,
      "▁proven": 8836,
      "▁neut": 8837,
      "▁Ms": 8838,
      "▁guarantee": 8839,
      "▁marked": 8840,
      " :": 8841,
      "ista": 8842,
      "brid": 8843,
      "▁Bes": 8844,
      "earing": 8845,
      "▁mistake": 8846,
      "Men": 8847,
      "rition": 8848,
      "▁Conf": 8849,
      "▁facilit": 8850,
      "▁principles": 8851,
      "rovers": 8852,
      "yard": 8853,
      "Can": 8854,
      "session": 8855,
      "▁vector": 8856,
      "▁neighb": 8857,
      "law": 8858,
      "Web": 8859,
      "▁Ren": 8860,
      "▁mob": 8861,
      "▁dates": 8862,
      "▁formula": 8863,
      "market": 8864,
      ".*": 8865,
      "$$": 8866,
      "▁adventure": 8867,
      "km": 8868,
      "▁deck": 8869,
      "ensed": 8870,
      "}}\\": 8871,
      "asm": 8872,
      "▁Financial": 8873,
      "▁Rog": 8874,
      "▁Need": 8875,
      "▁wins": 8876,
      "▁managing": 8877,
      "▁gate": 8878,
      "▁initially": 8879,
      "▁Dark": 8880,
      "rolling": 8881,
      "▁procedures": 8882,
      "▁Ult": 8883,
      "INE": 8884,
      "direct": 8885,
      "▁checking": 8886,
      "_.": 8887,
      "▁worried": 8888,
      "aret": 8889,
      "▁Ash": 8890,
      "▁papers": 8891,
      "▁attorney": 8892,
      "▁instruct": 8893,
      "▁persons": 8894,
      "▁council": 8895,
      "▁flavor": 8896,
      "alo": 8897,
      "suit": 8898,
      "▁compat": 8899,
      "▁Coast": 8900,
      "▁interaction": 8901,
      "▁Change": 8902,
      "cuss": 8903,
      "▁Secretary": 8904,
      "ся": 8905,
      "▁birthday": 8906,
      "develop": 8907,
      "▁approaches": 8908,
      "▁boot": 8909,
      "uma": 8910,
      "▁Taylor": 8911,
      "Rem": 8912,
      "admin": 8913,
      "▁offset": 8914,
      "▁everyday": 8915,
      "ERT": 8916,
      "▁Adam": 8917,
      "anny": 8918,
      "▁pharm": 8919,
      "▁visited": 8920,
      "▁studied": 8921,
      "eras": 8922,
      "▁wondering": 8923,
      "▁А": 8924,
      "▁ages": 8925,
      "values": 8926,
      "}\"": 8927,
      "gov": 8928,
      "▁arrested": 8929,
      "▁revolution": 8930,
      "Now": 8931,
      "▁organized": 8932,
      "▁doctors": 8933,
      "▁displ": 8934,
      "▁Very": 8935,
      "▁cock": 8936,
      "▁museum": 8937,
      "▁Server": 8938,
      "▁Response": 8939,
      "▁py": 8940,
      "▁tum": 8941,
      "▁instant": 8942,
      "ogs": 8943,
      "ige": 8944,
      "▁essentially": 8945,
      "▁weapon": 8946,
      "▁functional": 8947,
      "arters": 8948,
      "evin": 8949,
      "onymous": 8950,
      "▁Govern": 8951,
      "▁Hop": 8952,
      "ocur": 8953,
      "▁Kat": 8954,
      "epsilon": 8955,
      "▁blind": 8956,
      "▁thinks": 8957,
      "DIR": 8958,
      "▁Bern": 8959,
      "▁lifestyle": 8960,
      "▁tact": 8961,
      "▁accomplish": 8962,
      "Update": 8963,
      "%;": 8964,
      "▁mixture": 8965,
      "▁outcomes": 8966,
      "▁closing": 8967,
      "▁controlled": 8968,
      "▁Select": 8969,
      "▁pin": 8970,
      "▁flowers": 8971,
      "▁convin": 8972,
      "▁objective": 8973,
      "▁Share": 8974,
      "▁<!--": 8975,
      "▁Dub": 8976,
      "▁integrated": 8977,
      "Back": 8978,
      "▁finance": 8979,
      "▁Brazil": 8980,
      "▁gap": 8981,
      "▁naturally": 8982,
      "▁Box": 8983,
      "▁phenomen": 8984,
      "▁Bal": 8985,
      "▁Cat": 8986,
      "ango": 8987,
      "▁hosting": 8988,
      "▁NC": 8989,
      "▁bug": 8990,
      "▁strategic": 8991,
      "▁Korea": 8992,
      "▁submit": 8993,
      "▁hopes": 8994,
      "▁architecture": 8995,
      "▁memories": 8996,
      "▁firms": 8997,
      "▁Own": 8998,
      "pub": 8999,
      "ialize": 9000,
      "enders": 9001,
      "▁stupid": 9002,
      "onto": 9003,
      "▁arts": 9004,
      "▁Common": 9005,
      "▁consideration": 9006,
      "▁remem": 9007,
      "▁Meet": 9008,
      "▁reducing": 9009,
      "▁performing": 9010,
      "meta": 9011,
      "there": 9012,
      "uality": 9013,
      "▁Process": 9014,
      "dem": 9015,
      "address": 9016,
      "▁layout": 9017,
      "▁lessons": 9018,
      "Let": 9019,
      "▁consists": 9020,
      "▁flying": 9021,
      "▁saving": 9022,
      "▁recognition": 9023,
      "psi": 9024,
      "▁pleased": 9025,
      "▁Fox": 9026,
      "▁pleasure": 9027,
      "icted": 9028,
      "▁Bon": 9029,
      "▁calm": 9030,
      "ventional": 9031,
      "ifted": 9032,
      "Click": 9033,
      "▁Brook": 9034,
      "▁Ford": 9035,
      "▁ec": 9036,
      "essel": 9037,
      "▁Polit": 9038,
      "▁rush": 9039,
      "aka": 9040,
      "▁privacy": 9041,
      "cies": 9042,
      "▁answered": 9043,
      "theless": 9044,
      "▁buck": 9045,
      "▁languages": 9046,
      "▁IM": 9047,
      "▁Kenn": 9048,
      "▁к": 9049,
      "ordan": 9050,
      "▁involving": 9051,
      "▁Link": 9052,
      "▁Kingdom": 9053,
      "▁scream": 9054,
      "▁programme": 9055,
      "▁Help": 9056,
      "ureau": 9057,
      "▁Everyone": 9058,
      "oz": 9059,
      "▁TO": 9060,
      "▁Tal": 9061,
      "▁Fred": 9062,
      "▁scientists": 9063,
      "▁abandon": 9064,
      "▁lawyer": 9065,
      "▁infection": 9066,
      "▁sed": 9067,
      "system": 9068,
      "isa": 9069,
      "double": 9070,
      "drop": 9071,
      "▁universe": 9072,
      "cerning": 9073,
      "▁Cas": 9074,
      "▁tradition": 9075,
      "▁Ca": 9076,
      "Link": 9077,
      "NN": 9078,
      "▁header": 9079,
      "inition": 9080,
      "hist": 9081,
      "▁writers": 9082,
      "▁nodded": 9083,
      "pie": 9084,
      "▁attended": 9085,
      "aine": 9086,
      "▁Zeal": 9087,
      "▁lets": 9088,
      "▁rice": 9089,
      "▁Eric": 9090,
      "▁cake": 9091,
      "▁unus": 9092,
      "▁permission": 9093,
      "fare": 9094,
      "▁electricity": 9095,
      "▁Ah": 9096,
      "▁soldiers": 9097,
      "itals": 9098,
      "▁atmosphere": 9099,
      "ellect": 9100,
      "serve": 9101,
      "▁upload": 9102,
      "▁proposal": 9103,
      "▁Sir": 9104,
      "ня": 9105,
      "▁dies": 9106,
      "▁magazine": 9107,
      "▁Friend": 9108,
      "▁%}": 9109,
      "ucky": 9110,
      "lers": 9111,
      "▁brill": 9112,
      "Part": 9113,
      "quot": 9114,
      "▁une": 9115,
      "▁mining": 9116,
      "▁reputation": 9117,
      "▁exposed": 9118,
      "▁choosing": 9119,
      "ictionary": 9120,
      "▁cerem": 9121,
      "▁Bush": 9122,
      "▁integration": 9123,
      "▁Ter": 9124,
      "SO": 9125,
      "▁counsel": 9126,
      "▁filed": 9127,
      "▁diseases": 9128,
      "Attribute": 9129,
      "▁Sea": 9130,
      "▁fis": 9131,
      "▁ham": 9132,
      "▁Supreme": 9133,
      "▁strongly": 9134,
      "▁edit": 9135,
      "ennis": 9136,
      "ilipp": 9137,
      "▁jun": 9138,
      "▁Luc": 9139,
      "▁Season": 9140,
      "child": 9141,
      "▁minister": 9142,
      "ourse": 9143,
      "▁Holy": 9144,
      "▁lists": 9145,
      "▁hydro": 9146,
      "yers": 9147,
      "▁horiz": 9148,
      "▁findings": 9149,
      "template": 9150,
      "▁Small": 9151,
      "ollywood": 9152,
      "iate": 9153,
      "▁represented": 9154,
      "▁wake": 9155,
      "ча": 9156,
      "▁prev": 9157,
      "▁mood": 9158,
      "▁Queen": 9159,
      "lay": 9160,
      "lessly": 9161,
      "ACK": 9162,
      "▁heading": 9163,
      "▁('": 9164,
      "▁bonus": 9165,
      ":\\": 9166,
      "▁extend": 9167,
      "▁laid": 9168,
      "▁newly": 9169,
      "utter": 9170,
      "▁continuing": 9171,
      "▁coal": 9172,
      "▁loves": 9173,
      "Omega": 9174,
      "cers": 9175,
      "avas": 9176,
      "▁Building": 9177,
      "▁cable": 9178,
      "orig": 9179,
      "▁debut": 9180,
      "match": 9181,
      "▁introduction": 9182,
      "oval": 9183,
      "▁Carl": 9184,
      "▁Following": 9185,
      "holder": 9186,
      "▁insight": 9187,
      "▁Bru": 9188,
      "Str": 9189,
      "Ms": 9190,
      "inator": 9191,
      "acon": 9192,
      "▁gonna": 9193,
      "▁mini": 9194,
      "▁Mah": 9195,
      "▁Meanwhile": 9196,
      "▁Member": 9197,
      "▁retirement": 9198,
      "▁linear": 9199,
      "ERE": 9200,
      "btn": 9201,
      "▁weekly": 9202,
      "Spec": 9203,
      "▁Among": 9204,
      "▁Produ": 9205,
      "wan": 9206,
      "▁rum": 9207,
      "▁crash": 9208,
      "▁CL": 9209,
      "▁stack": 9210,
      "▁pul": 9211,
      "▁’": 9212,
      "▁SO": 9213,
      "▁sacr": 9214,
      "▁Mom": 9215,
      "▁merch": 9216,
      "^*": 9217,
      "▁tox": 9218,
      "▁”": 9219,
      "ateful": 9220,
      "▁aircraft": 9221,
      "making": 9222,
      "Block": 9223,
      "▁scores": 9224,
      "▁Op": 9225,
      "ulating": 9226,
      "▁borrow": 9227,
      "▁Donald": 9228,
      "prot": 9229,
      "▁engaged": 9230,
      "▁Yeah": 9231,
      "▁Dun": 9232,
      "fill": 9233,
      "tery": 9234,
      "▁capabilities": 9235,
      "▁presents": 9236,
      "▁trem": 9237,
      "▁Smart": 9238,
      "▁whis": 9239,
      "▁targets": 9240,
      "second": 9241,
      "Americ": 9242,
      "▁invited": 9243,
      "lix": 9244,
      "▁Fre": 9245,
      "▁Pacific": 9246,
      "chers": 9247,
      "▁permanent": 9248,
      "▁wanting": 9249,
      "should": 9250,
      "▁pp": 9251,
      "inson": 9252,
      "ethe": 9253,
      "▁Error": 9254,
      "Co": 9255,
      "Layout": 9256,
      "GE": 9257,
      "screen": 9258,
      "uby": 9259,
      "();\r": 9260,
      "▁plain": 9261,
      "inates": 9262,
      "debug": 9263,
      "Mode": 9264,
      "shot": 9265,
      "▁grid": 9266,
      "▁Gi": 9267,
      "▁representation": 9268,
      "aph": 9269,
      "▁conclusion": 9270,
      "▁everybody": 9271,
      "CM": 9272,
      "bottom": 9273,
      "etary": 9274,
      "▁Girl": 9275,
      "▁dump": 9276,
      "▁currency": 9277,
      "pense": 9278,
      "ppy": 9279,
      "▁не": 9280,
      "access": 9281,
      "▁convenient": 9282,
      "▁Furthermore": 9283,
      "▁Guard": 9284,
      "▁fabric": 9285,
      "▁manual": 9286,
      "eqn": 9287,
      "▁savings": 9288,
      "▁Story": 9289,
      "こと": 9290,
      "▁Pen": 9291,
      "▁barely": 9292,
      "atively": 9293,
      "▁expenses": 9294,
      "Char": 9295,
      "▁fake": 9296,
      "(_": 9297,
      "axy": 9298,
      "▁nose": 9299,
      "▁injured": 9300,
      "Valid": 9301,
      "▁purs": 9302,
      "▁Lew": 9303,
      "▁Things": 9304,
      "\"))": 9305,
      "aders": 9306,
      "▁Zealand": 9307,
      "Format": 9308,
      "▁assault": 9309,
      "boy": 9310,
      "GA": 9311,
      "zing": 9312,
      "▁DNA": 9313,
      "▁[\"": 9314,
      "▁Tax": 9315,
      "Min": 9316,
      "▁Core": 9317,
      "▁terrible": 9318,
      "▁Northern": 9319,
      "Buffer": 9320,
      "comfort": 9321,
      "▁belief": 9322,
[...]
